{
  "version": "1.0",
  "truncation": null,
  "padding": null,
  "added_tokens": [
    {
      "id": 65527,
      "content": "<|bos|>",
      "single_word": false,
      "lstrip": false,
      "rstrip": false,
      "normalized": false,
      "special": true
    },
    {
      "id": 65528,
      "content": "<|user_start|>",
      "single_word": false,
      "lstrip": false,
      "rstrip": false,
      "normalized": false,
      "special": true
    },
    {
      "id": 65529,
      "content": "<|user_end|>",
      "single_word": false,
      "lstrip": false,
      "rstrip": false,
      "normalized": false,
      "special": true
    },
    {
      "id": 65530,
      "content": "<|assistant_start|>",
      "single_word": false,
      "lstrip": false,
      "rstrip": false,
      "normalized": false,
      "special": true
    },
    {
      "id": 65531,
      "content": "<|assistant_end|>",
      "single_word": false,
      "lstrip": false,
      "rstrip": false,
      "normalized": false,
      "special": true
    },
    {
      "id": 65532,
      "content": "<|python_start|>",
      "single_word": false,
      "lstrip": false,
      "rstrip": false,
      "normalized": false,
      "special": true
    },
    {
      "id": 65533,
      "content": "<|python_end|>",
      "single_word": false,
      "lstrip": false,
      "rstrip": false,
      "normalized": false,
      "special": true
    },
    {
      "id": 65534,
      "content": "<|output_start|>",
      "single_word": false,
      "lstrip": false,
      "rstrip": false,
      "normalized": false,
      "special": true
    },
    {
      "id": 65535,
      "content": "<|output_end|>",
      "single_word": false,
      "lstrip": false,
      "rstrip": false,
      "normalized": false,
      "special": true
    }
  ],
  "normalizer": null,
  "pre_tokenizer": {
    "type": "Sequence",
    "pretokenizers": [
      {
        "type": "Split",
        "pattern": {
          "Regex": "'(?i:[sdmt]|ll|ve|re)|[^\\r\\n\\p{L}\\p{N}]?+\\p{L}+|\\p{N}{1,2}| ?[^\\s\\p{L}\\p{N}]++[\\r\\n]*|\\s*[\\r\\n]|\\s+(?!\\S)|\\s+"
        },
        "behavior": "Isolated",
        "invert": false
      },
      {
        "type": "ByteLevel",
        "add_prefix_space": false,
        "trim_offsets": true,
        "use_regex": false
      }
    ]
  },
  "post_processor": null,
  "decoder": {
    "type": "ByteLevel",
    "add_prefix_space": true,
    "trim_offsets": true,
    "use_regex": true
  },
  "model": {
    "type": "BPE",
    "dropout": null,
    "unk_token": null,
    "continuing_subword_prefix": null,
    "end_of_word_suffix": null,
    "fuse_unk": false,
    "byte_fallback": true,
    "ignore_merges": false,
    "vocab": {
      "Ā": 0,
      "ā": 1,
      "Ă": 2,
      "ă": 3,
      "Ą": 4,
      "ą": 5,
      "Ć": 6,
      "ć": 7,
      "Ĉ": 8,
      "ĉ": 9,
      "Ċ": 10,
      "ċ": 11,
      "Č": 12,
      "č": 13,
      "Ď": 14,
      "ď": 15,
      "Đ": 16,
      "đ": 17,
      "Ē": 18,
      "ē": 19,
      "Ĕ": 20,
      "ĕ": 21,
      "Ė": 22,
      "ė": 23,
      "Ę": 24,
      "ę": 25,
      "Ě": 26,
      "ě": 27,
      "Ĝ": 28,
      "ĝ": 29,
      "Ğ": 30,
      "ğ": 31,
      "Ġ": 32,
      "!": 33,
      "\"": 34,
      "#": 35,
      "$": 36,
      "%": 37,
      "&": 38,
      "'": 39,
      "(": 40,
      ")": 41,
      "*": 42,
      "+": 43,
      ",": 44,
      "-": 45,
      ".": 46,
      "/": 47,
      "0": 48,
      "1": 49,
      "2": 50,
      "3": 51,
      "4": 52,
      "5": 53,
      "6": 54,
      "7": 55,
      "8": 56,
      "9": 57,
      ":": 58,
      ";": 59,
      "<": 60,
      "=": 61,
      ">": 62,
      "?": 63,
      "@": 64,
      "A": 65,
      "B": 66,
      "C": 67,
      "D": 68,
      "E": 69,
      "F": 70,
      "G": 71,
      "H": 72,
      "I": 73,
      "J": 74,
      "K": 75,
      "L": 76,
      "M": 77,
      "N": 78,
      "O": 79,
      "P": 80,
      "Q": 81,
      "R": 82,
      "S": 83,
      "T": 84,
      "U": 85,
      "V": 86,
      "W": 87,
      "X": 88,
      "Y": 89,
      "Z": 90,
      "[": 91,
      "\\": 92,
      "]": 93,
      "^": 94,
      "_": 95,
      "`": 96,
      "a": 97,
      "b": 98,
      "c": 99,
      "d": 100,
      "e": 101,
      "f": 102,
      "g": 103,
      "h": 104,
      "i": 105,
      "j": 106,
      "k": 107,
      "l": 108,
      "m": 109,
      "n": 110,
      "o": 111,
      "p": 112,
      "q": 113,
      "r": 114,
      "s": 115,
      "t": 116,
      "u": 117,
      "v": 118,
      "w": 119,
      "x": 120,
      "y": 121,
      "z": 122,
      "{": 123,
      "|": 124,
      "}": 125,
      "~": 126,
      "ġ": 127,
      "Ģ": 128,
      "ģ": 129,
      "Ĥ": 130,
      "ĥ": 131,
      "Ħ": 132,
      "ħ": 133,
      "Ĩ": 134,
      "ĩ": 135,
      "Ī": 136,
      "ī": 137,
      "Ĭ": 138,
      "ĭ": 139,
      "Į": 140,
      "į": 141,
      "İ": 142,
      "ı": 143,
      "Ĳ": 144,
      "ĳ": 145,
      "Ĵ": 146,
      "ĵ": 147,
      "Ķ": 148,
      "ķ": 149,
      "ĸ": 150,
      "Ĺ": 151,
      "ĺ": 152,
      "Ļ": 153,
      "ļ": 154,
      "Ľ": 155,
      "ľ": 156,
      "Ŀ": 157,
      "ŀ": 158,
      "Ł": 159,
      "ł": 160,
      "¡": 161,
      "¢": 162,
      "£": 163,
      "¤": 164,
      "¥": 165,
      "¦": 166,
      "§": 167,
      "¨": 168,
      "©": 169,
      "ª": 170,
      "«": 171,
      "¬": 172,
      "Ń": 173,
      "®": 174,
      "¯": 175,
      "°": 176,
      "±": 177,
      "²": 178,
      "³": 179,
      "´": 180,
      "µ": 181,
      "¶": 182,
      "·": 183,
      "¸": 184,
      "¹": 185,
      "º": 186,
      "»": 187,
      "¼": 188,
      "½": 189,
      "¾": 190,
      "¿": 191,
      "À": 192,
      "Á": 193,
      "Â": 194,
      "Ã": 195,
      "Ä": 196,
      "Å": 197,
      "Æ": 198,
      "Ç": 199,
      "È": 200,
      "É": 201,
      "Ê": 202,
      "Ë": 203,
      "Ì": 204,
      "Í": 205,
      "Î": 206,
      "Ï": 207,
      "Ð": 208,
      "Ñ": 209,
      "Ò": 210,
      "Ó": 211,
      "Ô": 212,
      "Õ": 213,
      "Ö": 214,
      "×": 215,
      "Ø": 216,
      "Ù": 217,
      "Ú": 218,
      "Û": 219,
      "Ü": 220,
      "Ý": 221,
      "Þ": 222,
      "ß": 223,
      "à": 224,
      "á": 225,
      "â": 226,
      "ã": 227,
      "ä": 228,
      "å": 229,
      "æ": 230,
      "ç": 231,
      "è": 232,
      "é": 233,
      "ê": 234,
      "ë": 235,
      "ì": 236,
      "í": 237,
      "î": 238,
      "ï": 239,
      "ð": 240,
      "ñ": 241,
      "ò": 242,
      "ó": 243,
      "ô": 244,
      "õ": 245,
      "ö": 246,
      "÷": 247,
      "ø": 248,
      "ù": 249,
      "ú": 250,
      "û": 251,
      "ü": 252,
      "ý": 253,
      "þ": 254,
      "ÿ": 255,
      "ä¸": 256,
      "Ġt": 257,
      "Ġa": 258,
      "ãĢ": 259,
      "çļ": 260,
      "çļĦ": 261,
      "in": 262,
      "he": 263,
      "ï¼": 264,
      "re": 265,
      "äº": 266,
      "on": 267,
      "Ġthe": 268,
      "åı": 269,
      "at": 270,
      "er": 271,
      "æľ": 272,
      "ï¼Į": 273,
      "Ġs": 274,
      "ãĢĤ": 275,
      "ä»": 276,
      "Ġo": 277,
      "Ġc": 278,
      "en": 279,
      "åħ": 280,
      "å¤": 281,
      "es": 282,
      "ä½": 283,
      "çĶ": 284,
      "åĪ": 285,
      "is": 286,
      "è¿": 287,
      "nd": 288,
      "it": 289,
      "or": 290,
      "å®": 291,
      "al": 292,
      "Ġp": 293,
      "æĺ": 294,
      "Ġw": 295,
      "åĲ": 296,
      "ing": 297,
      "an": 298,
      "åľ": 299,
      "Ġf": 300,
      "Ġb": 301,
      "åŃ": 302,
      "è¯": 303,
      "Ġof": 304,
      "ed": 305,
      "ä¹": 306,
      "Ġin": 307,
      "ç»": 308,
      "ion": 309,
      "ãĢģ": 310,
      "Ġm": 311,
      "ou": 312,
      "ic": 313,
      "æĪ": 314,
      "ä¸Ģ": 315,
      "ar": 316,
      "Ġand": 317,
      "Ġd": 318,
      "Ġto": 319,
      "æĸ": 320,
      "âĢ": 321,
      "æĺ¯": 322,
      "åĬ": 323,
      "å°": 324,
      "le": 325,
      "åĽ": 326,
      "æĹ": 327,
      "ro": 328,
      "ĊĊ": 329,
      "è®": 330,
      "ent": 331,
      "ct": 332,
      "æľī": 333,
      "å¹": 334,
      "åį": 335,
      "åľ¨": 336,
      "ä¼": 337,
      "æĿ": 338,
      "ä¸į": 339,
      "as": 340,
      "èĢ": 341,
      "éĩ": 342,
      "Ġe": 343,
      "æķ": 344,
      "åº": 345,
      "Ġth": 346,
      "å¼": 347,
      "Ġre": 348,
      "äºº": 349,
      "æī": 350,
      "å¾": 351,
      "ä¸Ń": 352,
      "éĢ": 353,
      "Ġh": 354,
      "åŃ¦": 355,
      "åĴ": 356,
      "å¸": 357,
      "å·": 358,
      "ve": 359,
      "ĥ½": 360,
      "å¯": 361,
      "åĩ": 362,
      "åĮ": 363,
      "è¡": 364,
      "åĨ": 365,
      "om": 366,
      "æĢ": 367,
      "äºĨ": 368,
      "è§": 369,
      "il": 370,
      "åĴĮ": 371,
      "st": 372,
      "ç§": 373,
      "çī": 374,
      ".Ċ": 375,
      "Ġl": 376,
      "æł": 377,
      "çĽ": 378,
      "ä¸º": 379,
      "et": 380,
      "Ġn": 381,
      "çĶŁ": 382,
      "ation": 383,
      "æ°": 384,
      "Ġis": 385,
      "ä»¥": 386,
      "å¤§": 387,
      "çİ": 388,
      "ly": 389,
      "ä¸ª": 390,
      "æ³": 391,
      "çĶ¨": 392,
      "ãĢĤĊ": 393,
      "æĬ": 394,
      "å¥": 395,
      "ĠT": 396,
      "å½": 397,
      "im": 398,
      "se": 399,
      "ol": 400,
      "å¿": 401,
      "åİ": 402,
      "¦ģ": 403,
      "ce": 404,
      "èĩ": 405,
      "è¿Ļ": 406,
      "æĹ¶": 407,
      "æŀ": 408,
      "éĹ": 409,
      "è¦ģ": 410,
      "id": 411,
      "ow": 412,
      "Ġg": 413,
      "è´": 414,
      "çº": 415,
      "å±": 416,
      "èĥ½": 417,
      "æŃ": 418,
      "éĿ": 419,
      "ch": 420,
      "ra": 421,
      "Ġu": 422,
      "åı¯": 423,
      "Ġbe": 424,
      "ä¸Ĭ": 425,
      "æĪĳ": 426,
      "éĻ": 427,
      "æµ": 428,
      "ãĢĤĊĊ": 429,
      "ut": 430,
      "èµ": 431,
      "ig": 432,
      "ot": 433,
      "é¢": 434,
      "Ġy": 435,
      "Ġfor": 436,
      "ä½ľ": 437,
      "æİ": 438,
      "Ġst": 439,
      "ur": 440,
      "çĲ": 441,
      "æ¯": 442,
      "åĳ": 443,
      "åĪĨ": 444,
      "ul": 445,
      "çŃ": 446,
      "æ²": 447,
      "å¹´": 448,
      "å¯¹": 449,
      "ä¼ļ": 450,
      "è¾": 451,
      "æĪĲ": 452,
      "æĶ": 453,
      "äºİ": 454,
      "æĿ¥": 455,
      "ĠA": 456,
      "ä¿": 457,
      "çľ": 458,
      "æĥ": 459,
      "åĪ°": 460,
      "Ġthat": 461,
      "æĦ": 462,
      "Ġon": 463,
      "Ġyou": 464,
      "åıĳ": 465,
      "ĠS": 466,
      "Ġpro": 467,
      "æĭ": 468,
      "ver": 469,
      "å¦": 470,
      "ä»¬": 471,
      "ĠI": 472,
      "Ġcon": 473,
      "el": 474,
      "åĵ": 475,
      "åĩº": 476,
      "ir": 477,
      "åĽ½": 478,
      "ith": 479,
      "if": 480,
      "æĸ¹": 481,
      "Ġare": 482,
      "å¤ļ": 483,
      "am": 484,
      "ĠC": 485,
      "èĩª": 486,
      "Ġas": 487,
      "çĲĨ": 488,
      "Ġor": 489,
      "Ġan": 490,
      "è½": 491,
      "æĮ": 492,
      "åŃĲ": 493,
      "è¡Į": 494,
      "ay": 495,
      "éĺ": 496,
      "åŁ": 497,
      "å°±": 498,
      "ä½ĵ": 499,
      "åľ°": 500,
      "od": 501,
      "ä¸ĭ": 502,
      "æĢ§": 503,
      "è¿ĩ": 504,
      "èĤ": 505,
      "âĢľ": 506,
      "åī": 507,
      "Ġwith": 508,
      "çĤ": 509,
      "20": 510,
      "âĢĿ": 511,
      "åĬ¨": 512,
      "æ±": 513,
      "Ġ(": 514,
      "åĲİ": 515,
      "ment": 516,
      "é«": 517,
      "ge": 518,
      "åĮĸ": 519,
      "æĸĩ": 520,
      "æ´": 521,
      "å®¶": 522,
      "ter": 523,
      "ä¸İ": 524,
      "é«ĺ": 525,
      "ä¹Ł": 526,
      "æ³ķ": 527,
      "her": 528,
      "ä¾": 529,
      "çİ°": 530,
      "ate": 531,
      "çī©": 532,
      "ç®": 533,
      "å¦Ĥ": 534,
      "ç¨": 535,
      "ess": 536,
      "æ¸": 537,
      "ect": 538,
      "ç«": 539,
      "ad": 540,
      "å·¥": 541,
      "Ġex": 542,
      "Ġal": 543,
      "éĿ¢": 544,
      "æĽ": 545,
      "ĠThe": 546,
      "çŁ": 547,
      "Ġit": 548,
      "ç¬": 549,
      "éģ": 550,
      "ä¹ĭ": 551,
      "å°ı": 552,
      "ab": 553,
      "èī": 554,
      "ure": 555,
      "æı": 556,
      "åģ": 557,
      "èĢĮ": 558,
      "ä¸ļ": 559,
      "Ġde": 560,
      "å®ŀ": 561,
      "å®ļ": 562,
      "Ġwh": 563,
      "æľ¬": 564,
      "um": 565,
      "éķ": 566,
      "æ¬": 567,
      "ä»ĸ": 568,
      "èĬ": 569,
      "Ġcom": 570,
      "qu": 571,
      "çŃī": 572,
      "ive": 573,
      "op": 574,
      "è¿Ľ": 575,
      "åĬĽ": 576,
      "ç©": 577,
      "åħ¶": 578,
      "åĲĪ": 579,
      "ç§į": 580,
      "åĲĮ": 581,
      "..": 582,
      "ity": 583,
      "ies": 584,
      "çĤ¹": 585,
      "å¿ĥ": 586,
      "æķ°": 587,
      "ĠP": 588,
      "åº¦": 589,
      "ers": 590,
      "ist": 591,
      "Ġcan": 592,
      "ç³": 593,
      "å¥½": 594,
      "ä½ł": 595,
      "éĹ´": 596,
      "çĶµ": 597,
      "Ġv": 598,
      "çł": 599,
      "Âł": 600,
      "em": 601,
      "è·": 602,
      "æīĢ": 603,
      "us": 604,
      "ç»ı": 605,
      "è°": 606,
      "ï¼ļ": 607,
      "os": 608,
      "éĩı": 609,
      "ç¾": 610,
      "æĻ": 611,
      "åħ³": 612,
      "æ°´": 613,
      "ç½": 614,
      "ĠM": 615,
      "th": 616,
      "pp": 617,
      "ore": 618,
      "éĥ½": 619,
      "ä¸»": 620,
      "Ġsu": 621,
      "å¼Ģ": 622,
      "éĥ": 623,
      "å¾Ĺ": 624,
      "åĢ": 625,
      "ac": 626,
      "åºĶ": 627,
      "é¡": 628,
      "æį": 629,
      "ud": 630,
      "èĢħ": 631,
      "ill": 632,
      "èģ": 633,
      "å¤©": 634,
      "æķĻ": 635,
      "æĸ°": 636,
      "è¶": 637,
      "æľĢ": 638,
      "é£": 639,
      "çĦ": 640,
      "ke": 641,
      "est": 642,
      "iv": 643,
      "ant": 644,
      "éĢļ": 645,
      "åĨħ": 646,
      "éĽ": 647,
      "ç±": 648,
      "ä¸Ģä¸ª": 649,
      "é¢ĺ": 650,
      "Ġch": 651,
      "åĿ": 652,
      "éĩį": 653,
      "Ġha": 654,
      "nt": 655,
      "ere": 656,
      "Ġhe": 657,
      "éħ": 658,
      "çĽ¸": 659,
      "åĬł": 660,
      "èĥ": 661,
      "ç¨ĭ": 662,
      "ain": 663,
      "ical": 664,
      "éķ¿": 665,
      "æľº": 666,
      "ç³»": 667,
      "rom": 668,
      "åı¯ä»¥": 669,
      "igh": 670,
      "âĢĻ": 671,
      "ial": 672,
      "åħ¬": 673,
      "åħ¨": 674,
      "åĽł": 675,
      "oc": 676,
      "--": 677,
      "çĿ": 678,
      "ç¤": 679,
      "è¯´": 680,
      "æŁ": 681,
      "æ¶": 682,
      "éĥ¨": 683,
      "æĪĸ": 684,
      "ĠD": 685,
      "è¡¨": 686,
      "ĠB": 687,
      "éļ": 688,
      "åĵģ": 689,
      "res": 690,
      "åīį": 691,
      "ĠE": 692,
      "Ġby": 693,
      "åıĬ": 694,
      "ĠW": 695,
      "æıĲ": 696,
      "æĪĳä»¬": 697,
      "æĹ¥": 698,
      "Ġr": 699,
      "ç¡": 700,
      "Ġle": 701,
      "æĥħ": 702,
      "äº§": 703,
      "è§£": 704,
      "çľĭ": 705,
      "åĪ¶": 706,
      "ãĢĭ": 707,
      "å¢": 708,
      "ãĢĬ": 709,
      "éľ": 710,
      "çĹ": 711,
      "ort": 712,
      "çĦ¶": 713,
      "æŀľ": 714,
      "ç´": 715,
      "ç²": 716,
      "çĥ": 717,
      "Ġne": 718,
      "Ġse": 719,
      "10": 720,
      "æĦı": 721,
      "è¿ĺ": 722,
      "Ġat": 723,
      "ç¼": 724,
      "çķ": 725,
      "ç¬¬": 726,
      "ä½į": 727,
      "og": 728,
      "æĽ´": 729,
      "äºĭ": 730,
      "åħ¥": 731,
      "çĻ": 732,
      "èĭ": 733,
      "un": 734,
      "ĠH": 735,
      "ld": 736,
      "Ġfrom": 737,
      "ï¼ī": 738,
      "ä¸ī": 739,
      "å¸¸": 740,
      "æľŁ": 741,
      "æĺİ": 742,
      "å¼ı": 743,
      "ĠF": 744,
      "èį": 745,
      "Ġen": 746,
      "æľ¯": 747,
      "éĶ": 748,
      "å»": 749,
      "per": 750,
      "æ´»": 751,
      "ï¼Ī": 752,
      "ib": 753,
      "ç»ĵ": 754,
      "art": 755,
      "éĤ": 756,
      "pt": 757,
      "æĹł": 758,
      "ä½¿": 759,
      "ions": 760,
      "pe": 761,
      "çĸ": 762,
      "æľĪ": 763,
      "äºĽ": 764,
      "æ·": 765,
      "è®¡": 766,
      "èĢĥ": 767,
      "ä»İ": 768,
      "å½ĵ": 769,
      "æģ": 770,
      "pl": 771,
      "å¾Ī": 772,
      "Ġyour": 773,
      "éĴ": 774,
      "åŁº": 775,
      "and": 776,
      "ä¹Ī": 777,
      "âĢĶ": 778,
      "Ġus": 779,
      "èĦ": 780,
      "ĠR": 781,
      "ç¾İ": 782,
      "å¹¶": 783,
      "è®¾": 784,
      "ä»£": 785,
      "æ¯Ķ": 786,
      "åĲį": 787,
      "æĦŁ": 788,
      "å¤ĸ": 789,
      "éª": 790,
      "act": 791,
      "Ġim": 792,
      "çĿĢ": 793,
      "Ġsh": 794,
      "æ°Ķ": 795,
      "éĩĮ": 796,
      "äºĮ": 797,
      "å°Ĩ": 798,
      "èµ·": 799,
      "du": 800,
      "å§": 801,
      "éģĵ": 802,
      "çī¹": 803,
      "Ġthis": 804,
      "çĽ®": 805,
      "æł·": 806,
      "åĽ¾": 807,
      "çŁ¥": 808,
      "å¹³": 809,
      "Ġhave": 810,
      "ç§ĳ": 811,
      "è´¨": 812,
      "ä¿¡": 813,
      "çĪ": 814,
      "ä½Ĩ": 815,
      "Ġnot": 816,
      "å£": 817,
      "åıĺ": 818,
      "ine": 819,
      "æº": 820,
      "æ¡": 821,
      "åĮº": 822,
      "age": 823,
      "iz": 824,
      "åŀ": 825,
      "å±ķ": 826,
      "åİŁ": 827,
      "ight": 828,
      "çģ": 829,
      "å½¢": 830,
      "çłĶ": 831,
      "ç±»": 832,
      "rou": 833,
      "æŃ£": 834,
      "æŃ¤": 835,
      "ç¥": 836,
      "ff": 837,
      "orm": 838,
      "ag": 839,
      "Ġwe": 840,
      "Ġab": 841,
      "è¢": 842,
      "ĠL": 843,
      "ä¹ł": 844,
      "our": 845,
      "å¸Ī": 846,
      "å¸Ĥ": 847,
      "Ġwor": 848,
      "æĥ³": 849,
      "ä¿Ŀ": 850,
      "all": 851,
      "é¦": 852,
      "æİ¥": 853,
      "ated": 854,
      "Ġint": 855,
      "ult": 856,
      "ç®¡": 857,
      "19": 858,
      "åįķ": 859,
      "æ²¡": 860,
      "00": 861,
      "ä»¶": 862,
      "èī²": 863,
      "æµģ": 864,
      "å»º": 865,
      "ä¹¦": 866,
      "å·±": 867,
      "Ġcomp": 868,
      "æ¬¡": 869,
      "éĹ®": 870,
      "ell": 871,
      ":Ċ": 872,
      "èĪ": 873,
      "éľĢ": 874,
      "æĤ": 875,
      "ther": 876,
      "Ġcont": 877,
      "ide": 878,
      "æį®": 879,
      "Ġpl": 880,
      "è¯Ń": 881,
      "ich": 882,
      "èµĦ": 883,
      "èĩªå·±": 884,
      "åİ»": 885,
      "Ġres": 886,
      "åĻ": 887,
      "èĲ": 888,
      "èº": 889,
      "åĸ": 890,
      "ost": 891,
      "ĠN": 892,
      "ç¦": 893,
      "æīĭ": 894,
      "åģļ": 895,
      "çº¿": 896,
      "ations": 897,
      "æłĩ": 898,
      "éĵ": 899,
      "ru": 900,
      "ome": 901,
      "æ»": 902,
      "å®ī": 903,
      "ç»Ł": 904,
      "vel": 905,
      "Ġad": 906,
      "åħĥ": 907,
      "ä¸¤": 908,
      "åľº": 909,
      "Ġinc": 910,
      "åħ·": 911,
      "ĠG": 912,
      "éĩĳ": 913,
      "åĪ©": 914,
      "æĬĢ": 915,
      "åŀĭ": 916,
      "éĤ£": 917,
      "å®ĥ": 918,
      "out": 919,
      "gh": 920,
      "è¢«": 921,
      "çĶ±": 922,
      "are": 923,
      "The": 924,
      "Ġtheir": 925,
      "éĢī": 926,
      "ard": 927,
      "åĻ¨": 928,
      "ç©¶": 929,
      "ip": 930,
      "èº«": 931,
      "å¤Ħ": 932,
      "ans": 933,
      "ould": 934,
      "åĪ«": 935,
      "cc": 936,
      "åıª": 937,
      "hen": 938,
      "åĲĳ": 939,
      "è®º": 940,
      "è¯ķ": 941,
      "ç»Ħ": 942,
      "æ¯ı": 943,
      "æ±Ĥ": 944,
      "low": 945,
      "å¯¼": 946,
      "Ġdis": 947,
      "ĠO": 948,
      "å®¹": 949,
      "åĳĺ": 950,
      "Ġte": 951,
      "èĢģ": 952,
      "é£İ": 953,
      "æ³¨": 954,
      "æ®": 955,
      "è£": 956,
      "è¯¾": 957,
      "ĠIn": 958,
      "åĬ¡": 959,
      "è·¯": 960,
      "èĬĤ": 961,
      "Ġwill": 962,
      "ak": 963,
      "Ġk": 964,
      "åħī": 965,
      "ä¼ł": 966,
      "ast": 967,
      "ents": 968,
      "end": 969,
      "ach": 970,
      "able": 971,
      "é»": 972,
      "âĢĻs": 973,
      "è¯Ĩ": 974,
      "Ġcl": 975,
      "è±": 976,
      "èĻ": 977,
      "Ġwhich": 978,
      "ie": 979,
      "åķ": 980,
      "è¿Ľè¡Į": 981,
      "è®©": 982,
      "æł¼": 983,
      "ance": 984,
      "ence": 985,
      "äº¤": 986,
      "å²": 987,
      "....": 988,
      "ust": 989,
      "Ġimp": 990,
      "ous": 991,
      "æķĪ": 992,
      "æĸĻ": 993,
      "åŃĹ": 994,
      "ä¸ĵ": 995,
      "å¼º": 996,
      "ual": 997,
      "æ¨": 998,
      "çłĶç©¶": 999,
      "Ġdo": 1000,
      "Ġthey": 1001,
      "ction": 1002,
      "å½±": 1003,
      "ase": 1004,
      "ign": 1005,
      "å°ĳ": 1006,
      "ĠTh": 1007,
      "form": 1008,
      "è¥": 1009,
      "è¿Ĳ": 1010,
      "éŁ": 1011,
      "ire": 1012,
      "Ġme": 1013,
      "çĽ´": 1014,
      "ä»·": 1015,
      "çĶ»": 1016,
      "ĠĠ": 1017,
      "æºĲ": 1018,
      "ood": 1019,
      "å·¥ä½ľ": 1020,
      "Ġapp": 1021,
      "åĲĦ": 1022,
      "åıĹ": 1023,
      "çĹħ": 1024,
      "Ġsy": 1025,
      "é©": 1026,
      "è¥¿": 1027,
      "ater": 1028,
      "æĮĩ": 1029,
      "ä¸ŃåĽ½": 1030,
      "Ġmore": 1031,
      "éªĮ": 1032,
      "æµĭ": 1033,
      "æĹ¶éĹ´": 1034,
      "æĢĿ": 1035,
      "å¤į": 1036,
      "èĬ±": 1037,
      "å±±": 1038,
      "æ£": 1039,
      "ear": 1040,
      "åı·": 1041,
      "æĶ¾": 1042,
      "Ġstud": 1043,
      "ap": 1044,
      "ep": 1045,
      "æµ·": 1046,
      "èĮ": 1047,
      "çľŁ": 1048,
      "è§Ĥ": 1049,
      "æ²¡æľī": 1050,
      "Ġwas": 1051,
      "ĠU": 1052,
      "ong": 1053,
      "ä¸ĸ": 1054,
      "æŀĦ": 1055,
      "ind": 1056,
      "èİ": 1057,
      "è°ĥ": 1058,
      "çĻ½": 1059,
      "ç½ĳ": 1060,
      "åŃ¦çĶŁ": 1061,
      "æĮģ": 1062,
      "å°±æĺ¯": 1063,
      "so": 1064,
      "ary": 1065,
      "ç¤º": 1066,
      "ç¡®": 1067,
      "åĪĽ": 1068,
      "ç»Ĩ": 1069,
      "è®¤": 1070,
      "è§Ħ": 1071,
      "è½¦": 1072,
      "ç²¾": 1073,
      "ks": 1074,
      "çĬ": 1075,
      "æĶ¶": 1076,
      "ç»Ļ": 1077,
      "ä»»": 1078,
      "åĮħ": 1079,
      "åı£": 1080,
      "ç´ł": 1081,
      "æ°ĳ": 1082,
      "è¾ĥ": 1083,
      "åĽŀ": 1084,
      "ç©º": 1085,
      "åįģ": 1086,
      "ass": 1087,
      "ild": 1088,
      "èĩ³": 1089,
      "è¯»": 1090,
      "ï¼Ľ": 1091,
      "éĢł": 1092,
      "ri": 1093,
      "é¡¹": 1094,
      "å®Į": 1095,
      "æ¸ħ": 1096,
      ")Ċ": 1097,
      "Ġper": 1098,
      "å·²": 1099,
      "åħĪ": 1100,
      "ition": 1101,
      "è¾¾": 1102,
      "åıĸ": 1103,
      "ress": 1104,
      "Ġother": 1105,
      "çº§": 1106,
      "åıį": 1107,
      "åĽĽ": 1108,
      "èħ": 1109,
      "è½¬": 1110,
      "12": 1111,
      "éĹ®é¢ĺ": 1112,
      "ç«ĭ": 1113,
      "ens": 1114,
      "ang": 1115,
      "ä½ķ": 1116,
      "æĬ¥": 1117,
      "èĤ²": 1118,
      "èģĶ": 1119,
      "çĥŃ": 1120,
      "è¯ģ": 1121,
      "æ¨¡": 1122,
      "Ġman": 1123,
      "Ġpre": 1124,
      "å¤´": 1125,
      "ces": 1126,
      "éĿŀ": 1127,
      "ä»Ģ": 1128,
      "Ġhas": 1129,
      "æķ´": 1130,
      "éĻ¢": 1131,
      "æ¼": 1132,
      "ake": 1133,
      "éĢļè¿ĩ": 1134,
      "ç¤¾": 1135,
      "iff": 1136,
      "æĬĬ": 1137,
      "å¸¦": 1138,
      "åĨĻ": 1139,
      "æľį": 1140,
      "ä½¿çĶ¨": 1141,
      "Ġsp": 1142,
      "åŃ¦ä¹ł": 1143,
      "å¤ĩ": 1144,
      "åįĹ": 1145,
      "åĬŁ": 1146,
      "ä»Ģä¹Ī": 1147,
      "æĢ»": 1148,
      "Ġsc": 1149,
      "ä¸ľ": 1150,
      "ace": 1151,
      "åŃ©": 1152,
      "Ġqu": 1153,
      "ä¹ī": 1154,
      "ry": 1155,
      "åĩĨ": 1156,
      "çİ¯": 1157,
      "ors": 1158,
      "reat": 1159,
      "éľĢè¦ģ": 1160,
      "è¯¥": 1161,
      "è¯Ŀ": 1162,
      "ia": 1163,
      "Ġall": 1164,
      "æģ¯": 1165,
      "ime": 1166,
      "Ġso": 1167,
      "è®°": 1168,
      "èīº": 1169,
      "çķĮ": 1170,
      "oo": 1171,
      "è§Ĩ": 1172,
      "ice": 1173,
      "åĶ": 1174,
      "æĢģ": 1175,
      "ç»´": 1176,
      "æ¢": 1177,
      "Ġun": 1178,
      "ue": 1179,
      "åŃĺ": 1180,
      "åĢ¼": 1181,
      "åĨį": 1182,
      "ä½İ": 1183,
      "åıĤ": 1184,
      "å¢ŀ": 1185,
      "Ġalso": 1186,
      "è§ģ": 1187,
      "è¿Ļä¸ª": 1188,
      "çĭ": 1189,
      "æ²»": 1190,
      "ä¹Ĳ": 1191,
      "å¦Ĥæŀľ": 1192,
      "åı¸": 1193,
      "av": 1194,
      "Ġout": 1195,
      "è±¡": 1196,
      "ç¥ŀ": 1197,
      "?Ċ": 1198,
      "Â·": 1199,
      "Ġpart": 1200,
      "èı": 1201,
      "----": 1202,
      "æĿ¡": 1203,
      "éĹ¨": 1204,
      "åĪĻ": 1205,
      "çħ": 1206,
      "ory": 1207,
      "æ·±": 1208,
      "one": 1209,
      "åĦ": 1210,
      "Ġbut": 1211,
      "çİĩ": 1212,
      ",Ċ": 1213,
      "æŃ¥": 1214,
      "åħ»": 1215,
      "olog": 1216,
      "Ġev": 1217,
      "au": 1218,
      "stem": 1219,
      "ä¾Ľ": 1220,
      "Ġone": 1221,
      "åĮ»": 1222,
      "æł¹": 1223,
      "å¥³": 1224,
      "Ġdiff": 1225,
      "çīĩ": 1226,
      "çĪ±": 1227,
      "15": 1228,
      "æł¡": 1229,
      "ys": 1230,
      "Ġspe": 1231,
      "æīĵ": 1232,
      "åı¯èĥ½": 1233,
      "æīį": 1234,
      "cess": 1235,
      "æĿĲ": 1236,
      "éŁ³": 1237,
      "ä¸ŃçļĦ": 1238,
      "ack": 1239,
      "åį³": 1240,
      "éĽĨ": 1241,
      "Ġar": 1242,
      "é¥": 1243,
      "ç®Ĺ": 1244,
      "rit": 1245,
      "å¼ķ": 1246,
      "Ġmay": 1247,
      "30": 1248,
      "Ġj": 1249,
      "åİĭ": 1250,
      "ä¼ĺ": 1251,
      "åŃ©åŃĲ": 1252,
      "ĠThis": 1253,
      "nder": 1254,
      "åıĪ": 1255,
      "ific": 1256,
      "ç¦»": 1257,
      "lect": 1258,
      "ĠâĢľ": 1259,
      "ä¸ĩ": 1260,
      "ike": 1261,
      "åĦ¿": 1262,
      "æ¸©": 1263,
      "æĸ¹æ³ķ": 1264,
      "è¨": 1265,
      "å¾®": 1266,
      "è¯·": 1267,
      "18": 1268,
      "åĥ": 1269,
      "ä¾ĭ": 1270,
      "ph": 1271,
      "now": 1272,
      "Ġuse": 1273,
      "æĬĢæľ¯": 1274,
      "é£Ł": 1275,
      "very": 1276,
      "11": 1277,
      "åİĨ": 1278,
      "æĺĵ": 1279,
      "Ġcomm": 1280,
      "æĳ": 1281,
      "Ġ|": 1282,
      "ile": 1283,
      "æĶ¹": 1284,
      "åħ±": 1285,
      "ord": 1286,
      "è£ħ": 1287,
      "ç¢": 1288,
      "åĳ¨": 1289,
      "çĬ¶": 1290,
      "åĩł": 1291,
      "æ¡Ī": 1292,
      "),": 1293,
      "åıĳå±ķ": 1294,
      "åĮĹ": 1295,
      "ĠâĢ": 1296,
      "ame": 1297,
      "è¨Ģ": 1298,
      "å§ĭ": 1299,
      "æ®µ": 1300,
      "Ġhow": 1301,
      "ose": 1302,
      "çı": 1303,
      "ç½®": 1304,
      "éĢŁ": 1305,
      "ãĢĲ": 1306,
      "Ġtr": 1307,
      "Ġabout": 1308,
      "ãĢĳ": 1309,
      "ning": 1310,
      "è¿ĳ": 1311,
      "ail": 1312,
      "ber": 1313,
      "æŁ¥": 1314,
      "åĵį": 1315,
      "æİ¨": 1316,
      "ject": 1317,
      "éĢĤ": 1318,
      "ffect": 1319,
      "äºĶ": 1320,
      "éĻĲ": 1321,
      "å¢ĥ": 1322,
      "ms": 1323,
      "å¸ĥ": 1324,
      "å¹¿": 1325,
      "ãĢĢ": 1326,
      "eth": 1327,
      "ä»ĸä»¬": 1328,
      "åķĨ": 1329,
      "æŀģ": 1330,
      "ç³»ç»Ł": 1331,
      "Ġact": 1332,
      "velop": 1333,
      "ä¸Ģç§į": 1334,
      "lud": 1335,
      "å¿«": 1336,
      "åħ¬åı¸": 1337,
      "èį¯": 1338,
      "åĥı": 1339,
      "å¤ª": 1340,
      "Ġthem": 1341,
      "çĶŁæ´»": 1342,
      "ä¸įåĲĮ": 1343,
      "int": 1344,
      "ments": 1345,
      "ç§°": 1346,
      "Ġfe": 1347,
      "__": 1348,
      "ĠSt": 1349,
      "éļ¾": 1350,
      "ä¸Ķ": 1351,
      "ä¸»è¦ģ": 1352,
      "è¶Ĭ": 1353,
      "æŀĲ": 1354,
      "ple": 1355,
      "è¡Ģ": 1356,
      "æĶ¿": 1357,
      "èĩ´": 1358,
      "éĻ¤": 1359,
      "å¿ħ": 1360,
      "ub": 1361,
      "ound": 1362,
      "con": 1363,
      "åĬ©": 1364,
      "Ġthese": 1365,
      "åĢĻ": 1366,
      "Ġinto": 1367,
      "çļĦäºº": 1368,
      "è´¹": 1369,
      "åŁİ": 1370,
      "'s": 1371,
      "åĽłä¸º": 1372,
      "ric": 1373,
      "ree": 1374,
      "æĸŃ": 1375,
      "å±Ĥ": 1376,
      "Ġwhen": 1377,
      "çĲĥ": 1378,
      "å¡": 1379,
      "æ¹": 1380,
      "åı°": 1381,
      "è®¾è®¡": 1382,
      "éĺ³": 1383,
      "éħį": 1384,
      "etw": 1385,
      "çª": 1386,
      "Ġsystem": 1387,
      "é¢Ĩ": 1388,
      "æĺ¾": 1389,
      "è§ī": 1390,
      "ount": 1391,
      "ĠIt": 1392,
      "Ġunder": 1393,
      "Ġtime": 1394,
      "åĨ³": 1395,
      "Ġdes": 1396,
      "Ġinter": 1397,
      "Ġcol": 1398,
      "âĢĶâĢĶ": 1399,
      "æ¶Ī": 1400,
      "Ġup": 1401,
      "here": 1402,
      "å¥¹": 1403,
      "ä»Ĭ": 1404,
      "æľª": 1405,
      "è¯į": 1406,
      "åħĭ": 1407,
      "Ġ-": 1408,
      "ç§¯": 1409,
      "ll": 1410,
      "è¿ĻäºĽ": 1411,
      "èĭ±": 1412,
      "Ġsome": 1413,
      "ient": 1414,
      "Ġcons": 1415,
      "ics": 1416,
      "Ġacc": 1417,
      "king": 1418,
      "ç®Ģ": 1419,
      "æĻ¯": 1420,
      "ates": 1421,
      "å¹²": 1422,
      "Ġro": 1423,
      "éĩĩ": 1424,
      "Ġsuch": 1425,
      "åĨµ": 1426,
      "åįİ": 1427,
      "æĿĥ": 1428,
      "å±ŀ": 1429,
      "ities": 1430,
      "æİ§": 1431,
      "å¼ł": 1432,
      "ç¼ĸ": 1433,
      "Ġdiffere": 1434,
      "Ġtra": 1435,
      "æħ": 1436,
      "åĳ½": 1437,
      "ause": 1438,
      "ating": 1439,
      "rough": 1440,
      "Ġem": 1441,
      "ata": 1442,
      "Ġrec": 1443,
      "æļ": 1444,
      "ĠJ": 1445,
      "è¿ĩç¨ĭ": 1446,
      ",ä¸į": 1447,
      "æ£Ģ": 1448,
      "æİĴ": 1449,
      "Ġdevelop": 1450,
      "éĩįè¦ģ": 1451,
      "çº¢": 1452,
      "Ġmod": 1453,
      "Ġthan": 1454,
      "Ġpe": 1455,
      "åĪĹ": 1456,
      "éĻħ": 1457,
      "âĢ¦": 1458,
      "Ġbec": 1459,
      "ite": 1460,
      "50": 1461,
      "ative": 1462,
      "Ġneed": 1463,
      "les": 1464,
      "æķ°æį®": 1465,
      "é¦ĸ": 1466,
      "çŁ³": 1467,
      "æķĻèĤ²": 1468,
      "æĬ¤": 1469,
      "Ġph": 1470,
      "Ġused": 1471,
      "Ġrel": 1472,
      "Ġbl": 1473,
      "13": 1474,
      "Ġinclud": 1475,
      "ility": 1476,
      "æĮī": 1477,
      "çĮ": 1478,
      "èĳ": 1479,
      "åı¤": 1480,
      "æĴ": 1481,
      "æ»¡": 1482,
      "æĪ·": 1483,
      "éĺ²": 1484,
      "vers": 1485,
      "Ġif": 1486,
      "xt": 1487,
      "lic": 1488,
      "Ġknow": 1489,
      "æĸ¯": 1490,
      "Ġlike": 1491,
      "æĺŁ": 1492,
      "Ġprov": 1493,
      "ings": 1494,
      "èİ·": 1495,
      "å½±åĵį": 1496,
      "Ġhel": 1497,
      "ular": 1498,
      "ays": 1499,
      "ons": 1500,
      "æĶ¯": 1501,
      "Ġgen": 1502,
      "Ġover": 1503,
      "ç±³": 1504,
      "ally": 1505,
      "ari": 1506,
      "åĲ«": 1507,
      "Ġthere": 1508,
      "èĥ½åĬĽ": 1509,
      "ature": 1510,
      "é¾": 1511,
      "å¤§åŃ¦": 1512,
      "æĭ©": 1513,
      "è¶ħ": 1514,
      "te": 1515,
      "çīĪ": 1516,
      "æ¤": 1517,
      "Ġspec": 1518,
      "éļı": 1519,
      "åıĭ": 1520,
      "ish": 1521,
      "ä¿¡æģ¯": 1522,
      "å£°": 1523,
      "Ġwere": 1524,
      "é¢Ħ": 1525,
      "ç«ł": 1526,
      "Ġhelp": 1527,
      "ren": 1528,
      "16": 1529,
      "ä¸įæĺ¯": 1530,
      "erv": 1531,
      "Ġob": 1532,
      ",ä½Ĩ": 1533,
      "ove": 1534,
      "è¦ģæ±Ĥ": 1535,
      "çº¦": 1536,
      "Ġind": 1537,
      "é©¬": 1538,
      "æĪ¿": 1539,
      "ç»Ń": 1540,
      "ä»ħ": 1541,
      "çħ§": 1542,
      "å¾·": 1543,
      "Ġra": 1544,
      "çĸĹ": 1545,
      "éĥ¨åĪĨ": 1546,
      "Ġass": 1547,
      "æīĢä»¥": 1548,
      "åĨħå®¹": 1549,
      "åł": 1550,
      "è¾¹": 1551,
      "23": 1552,
      "ĠV": 1553,
      "Ġits": 1554,
      "æ´»åĬ¨": 1555,
      "éħ¸": 1556,
      "åı²": 1557,
      "å¤Ł": 1558,
      "ĠY": 1559,
      "Ġprodu": 1560,
      "è¯Ħ": 1561,
      "ä¾¿": 1562,
      "Ġchild": 1563,
      "é¸": 1564,
      ";Ċ": 1565,
      "ç®¡çĲĨ": 1566,
      "è§Ĵ": 1567,
      "å¾Ģ": 1568,
      "æĹ¶åĢĻ": 1569,
      "æĲ": 1570,
      "row": 1571,
      "åįĩ": 1572,
      "éĢīæĭ©": 1573,
      "çİĭ": 1574,
      "Ġour": 1575,
      "åĽ¢": 1576,
      "ract": 1577,
      "è¶³": 1578,
      "æ²¹": 1579,
      "æ¸¸": 1580,
      "æĸ¹å¼ı": 1581,
      "**": 1582,
      "æķħ": 1583,
      "ced": 1584,
      "Ġlear": 1585,
      "åĪĨæŀĲ": 1586,
      "èīºæľ¯": 1587,
      "Ġac": 1588,
      "ased": 1589,
      "ç§ĳåŃ¦": 1590,
      "èĲ¥": 1591,
      "èĮĥ": 1592,
      "è¿ŀ": 1593,
      "è¿Ļæł·": 1594,
      "æĭĽ": 1595,
      "Ġany": 1596,
      "Ġ\"": 1597,
      "ds": 1598,
      "ç¤¾ä¼ļ": 1599,
      "ople": 1600,
      "ough": 1601,
      "ĠK": 1602,
      "åŁŁ": 1603,
      "ange": 1604,
      "èµ°": 1605,
      "é»Ħ": 1606,
      "ä»¥åıĬ": 1607,
      "çģ«": 1608,
      "ä¸ĸçķĮ": 1609,
      "oss": 1610,
      "æıĲä¾Ľ": 1611,
      "ble": 1612,
      "Ġtw": 1613,
      ").": 1614,
      "å°Ķ": 1615,
      "Ġthrough": 1616,
      "ä½ľçĶ¨": 1617,
      "ä¸ĢäºĽ": 1618,
      "å·ŀ": 1619,
      "rib": 1620,
      "Ġform": 1621,
      "Ġwork": 1622,
      "è®¸": 1623,
      "Ġexam": 1624,
      "alth": 1625,
      "æĪĺ": 1626,
      "æ¶²": 1627,
      "Ġpo": 1628,
      "åħ·æľī": 1629,
      "åĳĬ": 1630,
      "22": 1631,
      "çŁ¥è¯Ĩ": 1632,
      "è¯Ĺ": 1633,
      "ç¬¬ä¸Ģ": 1634,
      "å®¢": 1635,
      "äººçļĦ": 1636,
      "æĬķ": 1637,
      "åħį": 1638,
      "Ġprocess": 1639,
      "æķĻåŃ¦": 1640,
      "æĥħåĨµ": 1641,
      "çļĦæĺ¯": 1642,
      "Ġwhat": 1643,
      "ï¼Ł": 1644,
      ",åľ¨": 1645,
      "è®®": 1646,
      "æ±Ł": 1647,
      "ob": 1648,
      "åĭ": 1649,
      "een": 1650,
      "çŃĶ": 1651,
      "oth": 1652,
      "ç»ĥ": 1653,
      "17": 1654,
      "Ġmost": 1655,
      "Ġpr": 1656,
      "ram": 1657,
      "Ġag": 1658,
      "æĸ½": 1659,
      "Ġgo": 1660,
      "å£«": 1661,
      "!ĊĊ": 1662,
      "å¤±": 1663,
      "èģĮ": 1664,
      "21": 1665,
      "èĩªå·±çļĦ": 1666,
      "åĲĥ": 1667,
      "çľģ": 1668,
      "æľĽ": 1669,
      "Ġnew": 1670,
      "æł¸": 1671,
      "ise": 1672,
      "Ġwho": 1673,
      "Ġbeen": 1674,
      "ä¿®": 1675,
      "éĻį": 1676,
      "çĨ": 1677,
      "åºı": 1678,
      "ne": 1679,
      "æ¦": 1680,
      "formation": 1681,
      "åĪĿ": 1682,
      "è¿°": 1683,
      "åĽŃ": 1684,
      "è¿ľ": 1685,
      "åĪĩ": 1686,
      "14": 1687,
      "çłģ": 1688,
      "åģ¥": 1689,
      "Ġadd": 1690,
      "arch": 1691,
      "å¼Ģå§ĭ": 1692,
      "éĿĴ": 1693,
      "åľŁ": 1694,
      "Ġtrans": 1695,
      "Ġexp": 1696,
      "æ¬¢": 1697,
      "åħ¶ä»ĸ": 1698,
      "erm": 1699,
      "æ¥": 1700,
      "åīĤ": 1701,
      "åħħ": 1702,
      "Ġdata": 1703,
      "å¥½çļĦ": 1704,
      "å¨": 1705,
      "uc": 1706,
      "ä¸ĵä¸ļ": 1707,
      "Ġpat": 1708,
      "Ġdi": 1709,
      "Ġsub": 1710,
      "å¿µ": 1711,
      "æĵ": 1712,
      "åĿĩ": 1713,
      "als": 1714,
      "etween": 1715,
      "........": 1716,
      "Ġam": 1717,
      "è®²": 1718,
      "ç¾¤": 1719,
      "ç£": 1720,
      "ï¼Įåľ¨": 1721,
      "ä¼Ĺ": 1722,
      "irst": 1723,
      "Ġco": 1724,
      "åĸľ": 1725,
      "Ġdifferent": 1726,
      "cy": 1727,
      "çľ¼": 1728,
      "å½ķ": 1729,
      "ible": 1730,
      "Ġnum": 1731,
      "åº·": 1732,
      "æĭ¬": 1733,
      "åĽ½å®¶": 1734,
      "è¿Ļç§į": 1735,
      "chn": 1736,
      "æĸĩåĮĸ": 1737,
      "åĲĮæĹ¶": 1738,
      "å¾Īå¤ļ": 1739,
      "æĹ©": 1740,
      "ful": 1741,
      "æĿ¿": 1742,
      "åĩ»": 1743,
      "ook": 1744,
      "uring": 1745,
      "ĠCh": 1746,
      "éĥ½æĺ¯": 1747,
      "Ġinf": 1748,
      "ä¼ģ": 1749,
      "ution": 1750,
      "Ġsur": 1751,
      "Ġpeople": 1752,
      "åıĳçİ°": 1753,
      "æľįåĬ¡": 1754,
      "Ġbetween": 1755,
      "åĪĴ": 1756,
      "ational": 1757,
      "ä½ı": 1758,
      "ten": 1759,
      "ç¿": 1760,
      "Ġreg": 1761,
      "åĲ¸": 1762,
      "åĽ´": 1763,
      "åĲ¬": 1764,
      "å¯Ĩ": 1765,
      "ruct": 1766,
      "Ġeffect": 1767,
      "Ġty": 1768,
      "ç¬Ķ": 1769,
      "Ġrep": 1770,
      "Ġinv": 1771,
      "äº§åĵģ": 1772,
      "Ġrese": 1773,
      "ä¸Ģå®ļ": 1774,
      "ov": 1775,
      "erg": 1776,
      "å¾ĭ": 1777,
      "æ¼Ķ": 1778,
      "tain": 1779,
      "å¯¹äºİ": 1780,
      "ower": 1781,
      "åĳ³": 1782,
      "å·®": 1783,
      "èĥŀ": 1784,
      "round": 1785,
      "åı¥": 1786,
      "åĩı": 1787,
      "èĽ": 1788,
      "å±Ģ": 1789,
      "ä½ľä¸º": 1790,
      "çĭ¬": 1791,
      "èĨ": 1792,
      "åŁ¹": 1793,
      "éĺŁ": 1794,
      "æĭī": 1795,
      "hat": 1796,
      "Ġhigh": 1797,
      "é¡¹çĽ®": 1798,
      "çĽ¸åħ³": 1799,
      "Ġdet": 1800,
      "æĸ¹éĿ¢": 1801,
      "åºĶçĶ¨": 1802,
      "å¤§å®¶": 1803,
      "Ġfol": 1804,
      "Ġtwo": 1805,
      "æ¿": 1806,
      "åĬŀ": 1807,
      "å®¤": 1808,
      "å¤ĦçĲĨ": 1809,
      "Ġresult": 1810,
      "æī¾": 1811,
      ",ä¹Ł": 1812,
      "æŀĹ": 1813,
      "Ġno": 1814,
      "Ġsim": 1815,
      "ç»Ī": 1816,
      "åºķ": 1817,
      "tern": 1818,
      "Ġpres": 1819,
      "çİ¯å¢ĥ": 1820,
      "Ġshould": 1821,
      "è½»": 1822,
      "èĪ¬": 1823,
      "red": 1824,
      "èĢģå¸Ī": 1825,
      "Ġyear": 1826,
      "å·²ç»ı": 1827,
      "èĹ": 1828,
      "æł¹æį®": 1829,
      "çĻ¾": 1830,
      "ï¼Įä½Ĩ": 1831,
      "ience": 1832,
      "èĩªçĦ¶": 1833,
      "Ġfl": 1834,
      "hes": 1835,
      "ç»ĵæŀĦ": 1836,
      "æĤ¨": 1837,
      "ç»Ĩèĥŀ": 1838,
      "åıĮ": 1839,
      "åĩºçİ°": 1840,
      "çıŃ": 1841,
      "Ġonly": 1842,
      "In": 1843,
      "Ġexper": 1844,
      "åĬ¿": 1845,
      "iss": 1846,
      "own": 1847,
      "çķĻ": 1848,
      "æĺ¥": 1849,
      "Ġsupp": 1850,
      "èŀ": 1851,
      "éĻ©": 1852,
      "ology": 1853,
      "åĮħæĭ¬": 1854,
      "its": 1855,
      "Ġimport": 1856,
      "Ġdec": 1857,
      "é¢ĳ": 1858,
      ",èĢĮ": 1859,
      "Ġwater": 1860,
      "å¤§çļĦ": 1861,
      "æĻº": 1862,
      "ft": 1863,
      "ç¦ı": 1864,
      "Ġinst": 1865,
      "å¼Ĥ": 1866,
      ",æĪĳ": 1867,
      "åŁºç¡": 1868,
      "èĲ½": 1869,
      "40": 1870,
      "ä¸ĬçļĦ": 1871,
      "å®īåħ¨": 1872,
      "ĠâĢĵ": 1873,
      "çĵ": 1874,
      "åŁºç¡Ģ": 1875,
      "ä½ľåĵģ": 1876,
      "æ¯į": 1877,
      "åħ³ç³»": 1878,
      "å®Ŀ": 1879,
      "å¯Į": 1880,
      "æīĢæľī": 1881,
      "Ġusing": 1882,
      "25": 1883,
      "äº²": 1884,
      "éĶĻ": 1885,
      "æ²³": 1886,
      "æµİ": 1887,
      "ï¼ĮèĢĮ": 1888,
      "æ³¢": 1889,
      "Ġpers": 1890,
      "è¿ĺæĺ¯": 1891,
      "cept": 1892,
      "çĶŁçī©": 1893,
      "ä¾Ŀ": 1894,
      "æ¿Ģ": 1895,
      "ark": 1896,
      "åįĬ": 1897,
      "ç»ĩ": 1898,
      "ä¼ģä¸ļ": 1899,
      "Ġeach": 1900,
      "äºĴ": 1901,
      "æĽ²": 1902,
      "Ġvari": 1903,
      "äº«": 1904,
      "Ġincre": 1905,
      "iew": 1906,
      "Ġmake": 1907,
      "ied": 1908,
      "Ġstudents": 1909,
      "éĿŀå¸¸": 1910,
      "Ġsm": 1911,
      "Ġmany": 1912,
      "Ġsign": 1913,
      "ãĢĤåľ¨": 1914,
      "æĻ®": 1915,
      "Ġinformation": 1916,
      "æŁĲ": 1917,
      "äº§çĶŁ": 1918,
      "é¦Ļ": 1919,
      "æĿĲæĸĻ": 1920,
      "å¿Ĺ": 1921,
      "æį¢": 1922,
      "ize": 1923,
      "æ°§": 1924,
      "Ġdisc": 1925,
      "Ġrequ": 1926,
      "éĨ": 1927,
      "åĤ": 1928,
      "Ġwould": 1929,
      "gan": 1930,
      "ï¼Įå¹¶": 1931,
      "ick": 1932,
      ",æľī": 1933,
      "ically": 1934,
      "è´£": 1935,
      "äºĳ": 1936,
      "èĥ½å¤Ł": 1937,
      "è¾ĵ": 1938,
      "å¦Ĥä½ķ": 1939,
      "ä»ĭ": 1940,
      "Ġfirst": 1941,
      "æŃ¢": 1942,
      "å²ģ": 1943,
      "ÂłÂł": 1944,
      "Ġwhere": 1945,
      "çļ®": 1946,
      "åŁºæľ¬": 1947,
      "ĠRe": 1948,
      "!Ċ": 1949,
      ",è¿Ļ": 1950,
      "åĽłæŃ¤": 1951,
      "?ĊĊ": 1952,
      "ting": 1953,
      "åħ´": 1954,
      "æ¤į": 1955,
      "åıĳçĶŁ": 1956,
      "ä»½": 1957,
      "hed": 1958,
      "Ġfollow": 1959,
      "å°½": 1960,
      "fore": 1961,
      "ines": 1962,
      "Ġrem": 1963,
      "Ġwell": 1964,
      "Ġhealth": 1965,
      "Ġke": 1966,
      "éħĴ": 1967,
      "ng": 1968,
      "Ġatt": 1969,
      "ethod": 1970,
      "æ¯Ĵ": 1971,
      "fter": 1972,
      "åħŃ": 1973,
      "ures": 1974,
      "ä¸įèĥ½": 1975,
      "ool": 1976,
      "çļĦä¸Ģ": 1977,
      "Ġgener": 1978,
      "åį´": 1979,
      "è¡¥": 1980,
      "æĪĲä¸º": 1981,
      "æŁĵ": 1982,
      "ident": 1983,
      "ç¯": 1984,
      "Ġtechn": 1985,
      "äºļ": 1986,
      "åĬŁèĥ½": 1987,
      "éĺħ": 1988,
      "è´Ł": 1989,
      "Ġresp": 1990,
      "hem": 1991,
      "ever": 1992,
      "æĬĹ": 1993,
      "ases": 1994,
      "èĥĮ": 1995,
      "é¡»": 1996,
      "ural": 1997,
      "ss": 1998,
      "Ġoff": 1999,
      "stand": 2000,
      "âĳ": 2001,
      "ä¸´": 2002,
      "èĴ": 2003,
      "èįī": 2004,
      "ç«Ļ": 2005,
      "Ġsol": 2006,
      "é²": 2007,
      "ä¹ĭéĹ´": 2008,
      "Ġget": 2009,
      "ps": 2010,
      "æĪĸèĢħ": 2011,
      "çŁ¥éģĵ": 2012,
      "ian": 2013,
      "èģĺ": 2014,
      "å¸®": 2015,
      "ç»ľ": 2016,
      "Ġsa": 2017,
      "åŃĺåľ¨": 2018,
      "get": 2019,
      "Ġval": 2020,
      "ious": 2021,
      "ron": 2022,
      "ä¹Łæĺ¯": 2023,
      "æİ§åĪ¶": 2024,
      "åĪ°äºĨ": 2025,
      "Ġfun": 2026,
      "åĨľ": 2027,
      "ç«¯": 2028,
      "æĢİ": 2029,
      "å¸Ĥåľº": 2030,
      "ä¸ĢèĪ¬": 2031,
      "è½½": 2032,
      "60": 2033,
      "å¾ģ": 2034,
      "æŃĮ": 2035,
      "Ġsk": 2036,
      "åĲ¦": 2037,
      "çĶ·": 2038,
      "çĽĬ": 2039,
      "å¾ħ": 2040,
      "çİ°åľ¨": 2041,
      "æıĲé«ĺ": 2042,
      "Ġthen": 2043,
      "å©": 2044,
      "rain": 2045,
      "çŃĸ": 2046,
      "ĠPro": 2047,
      "è®Ń": 2048,
      "Ġcell": 2049,
      "ants": 2050,
      "äººåĳĺ": 2051,
      "æ¯Ķè¾ĥ": 2052,
      "Ġmed": 2053,
      "âĢĿï¼Į": 2054,
      "Ġstr": 2055,
      "åħ³æ³¨": 2056,
      "æ¦Ĥ": 2057,
      "èģĶç³»": 2058,
      "Ġed": 2059,
      "ages": 2060,
      "ä¹°": 2061,
      "ues": 2062,
      "çŁŃ": 2063,
      "åĿĹ": 2064,
      "Ġappro": 2065,
      "Ġpartic": 2066,
      "åı¦": 2067,
      "æ½": 2068,
      "com": 2069,
      "ness": 2070,
      "Ġset": 2071,
      "der": 2072,
      ",æĺ¯": 2073,
      "äº¬": 2074,
      "ink": 2075,
      "åĵª": 2076,
      "æĤ£": 2077,
      ",å¹¶": 2078,
      "åĨĽ": 2079,
      "Ġref": 2080,
      "å°Ħ": 2081,
      "ä¸Ńå¿ĥ": 2082,
      "--------": 2083,
      "æłĳ": 2084,
      "åįļ": 2085,
      "æī¿": 2086,
      "å½©": 2087,
      "ody": 2088,
      "åı¶": 2089,
      "Ġext": 2090,
      "ually": 2091,
      "ç¬¬äºĮ": 2092,
      "åįĥ": 2093,
      "åį°": 2094,
      "Ġcar": 2095,
      "æĿİ": 2096,
      "ç»ıæµİ": 2097,
      "æ¬¾": 2098,
      "è®¡ç®Ĺ": 2099,
      "åįı": 2100,
      "æİ¢": 2101,
      "èī¯": 2102,
      "ĠUn": 2103,
      "ä¸ªäºº": 2104,
      "çļĦæĹ¶åĢĻ": 2105,
      "æłĩåĩĨ": 2106,
      "aking": 2107,
      "åĸĦ": 2108,
      "Ġlong": 2109,
      "é»ĳ": 2110,
      "ife": 2111,
      "å½¢æĪĲ": 2112,
      "ĠIf": 2113,
      "é¾Ļ": 2114,
      "Ġhum": 2115,
      "çªģ": 2116,
      "Ġmethod": 2117,
      "ential": 2118,
      "oci": 2119,
      "èĸ": 2120,
      "é¼": 2121,
      "\",": 2122,
      "çĶŁäº§": 2123,
      "Ġdef": 2124,
      "ĠHow": 2125,
      "æĽ´å¤ļ": 2126,
      "Ġcomple": 2127,
      "éĢģ": 2128,
      "ä¸¥": 2129,
      "ts": 2130,
      "Ġcur": 2131,
      "åĪ»": 2132,
      "ĠWe": 2133,
      "ç»ĵæŀľ": 2134,
      "Ġread": 2135,
      "æĿĤ": 2136,
      "Ġprog": 2137,
      "èıĮ": 2138,
      "äºĨè§£": 2139,
      "Ġimportant": 2140,
      "iron": 2141,
      "Ġactiv": 2142,
      "ä¼¤": 2143,
      "ection": 2144,
      "ized": 2145,
      "ä¼¼": 2146,
      "æľ¨": 2147,
      "vent": 2148,
      "sel": 2149,
      "Ġanal": 2150,
      "ç§»": 2151,
      "Ġca": 2152,
      "Ġproble": 2153,
      "çĹĩ": 2154,
      "ck": 2155,
      "ily": 2156,
      "åĳ¢": 2157,
      "éĤ£ä¹Ī": 2158,
      "ï¼Įä¸į": 2159,
      "çĩ": 2160,
      "Ġdist": 2161,
      "ath": 2162,
      "åģ¥åº·": 2163,
      "å®³": 2164,
      "80": 2165,
      "æķĻå¸Ī": 2166,
      "æĵį": 2167,
      "led": 2168,
      "iqu": 2169,
      "ĠĠĠĠ": 2170,
      "Ġcre": 2171,
      "åħ¸": 2172,
      "Ġresearch": 2173,
      "cer": 2174,
      "ä½łçļĦ": 2175,
      "æ³¨æĦı": 2176,
      "å¥ĸ": 2177,
      "åı³": 2178,
      "Ġlevel": 2179,
      "Ġexpl": 2180,
      "éĶĢ": 2181,
      "å¯Ł": 2182,
      "ç»Ħç»ĩ": 2183,
      "Ġwrit": 2184,
      "ict": 2185,
      "æľĭ": 2186,
      "èģļ": 2187,
      "æĿ¥çļĦ": 2188,
      "åĽº": 2189,
      "ä¸Ģèµ·": 2190,
      "éĴ±": 2191,
      "24": 2192,
      "uch": 2193,
      "è´Ń": 2194,
      "ÂłĠ": 2195,
      "çºª": 2196,
      "å·¦": 2197,
      "ç¾İåĽ½": 2198,
      "èĦĳ": 2199,
      "Ġbu": 2200,
      "èĽĭ": 2201,
      "Ġfact": 2202,
      "å±ħ": 2203,
      "æĿĳ": 2204,
      "æŃ»": 2205,
      "åıĺåĮĸ": 2206,
      "Ġcould": 2207,
      "ç»Ŀ": 2208,
      "Ġway": 2209,
      "éģĩ": 2210,
      "Ġtest": 2211,
      "è¯¾ç¨ĭ": 2212,
      "åģĩ": 2213,
      "Th": 2214,
      "Ġbecause": 2215,
      "mer": 2216,
      "ety": 2217,
      "å®¡": 2218,
      "çĶ¨äºİ": 2219,
      "è¿ĺæľī": 2220,
      "ç´¢": 2221,
      "Ġcor": 2222,
      "Ġlar": 2223,
      "è¿Ļä¸Ģ": 2224,
      "ç½ĳç»ľ": 2225,
      "Ġnumber": 2226,
      "ices": 2227,
      "çĶ±äºİ": 2228,
      "Ġdoes": 2229,
      "çķ¥": 2230,
      "éĿĻ": 2231,
      "å®ĺ": 2232,
      "è®¤ä¸º": 2233,
      "æ²»çĸĹ": 2234,
      "è·Ł": 2235,
      "åİĨåı²": 2236,
      "å®ŀéªĮ": 2237,
      "cial": 2238,
      "å®ŀçİ°": 2239,
      "ered": 2240,
      "åį¡": 2241,
      "Ġaut": 2242,
      "urn": 2243,
      "å¥Ĺ": 2244,
      "èµĽ": 2245,
      "åłĤ": 2246,
      "ivid": 2247,
      "iel": 2248,
      "èŀį": 2249,
      "ï¼ģ": 2250,
      "èĹı": 2251,
      "çģµ": 2252,
      "rol": 2253,
      "chool": 2254,
      "æľĭåıĭ": 2255,
      "âĸ": 2256,
      "éº": 2257,
      "ene": 2258,
      "ä¸ºäºĨ": 2259,
      "Ġclass": 2260,
      "ives": 2261,
      "Ġdep": 2262,
      "åŃ¦æł¡": 2263,
      "Ġexample": 2264,
      "tic": 2265,
      "ism": 2266,
      "ax": 2267,
      "oy": 2268,
      "Ġsee": 2269,
      "ä»¥ä¸Ĭ": 2270,
      "çĲĨè§£": 2271,
      "èĵ": 2272,
      "Ġgra": 2273,
      "å·¥ç¨ĭ": 2274,
      "Ġunderstand": 2275,
      "éĶ®": 2276,
      "çĸ«": 2277,
      "ç²ī": 2278,
      "èĳĹ": 2279,
      "èĤī": 2280,
      "éĺ¶": 2281,
      "ists": 2282,
      "Ġins": 2283,
      "çł´": 2284,
      "nce": 2285,
      "å¸Į": 2286,
      "éĺħè¯»": 2287,
      "åİ¿": 2288,
      "Ġmodel": 2289,
      "Ġstudy": 2290,
      ",ä¸Ģ": 2291,
      "ç¨³": 2292,
      "ork": 2293,
      "ä½ľèĢħ": 2294,
      "äºī": 2295,
      "æĹı": 2296,
      "ality": 2297,
      "åħ«": 2298,
      "ade": 2299,
      "ç¼º": 2300,
      "Ġprovid": 2301,
      "Ġdesign": 2302,
      "èĤ¡": 2303,
      "ĠCon": 2304,
      "Ġperson": 2305,
      "æķ£": 2306,
      "éĩĬ": 2307,
      "ĠFor": 2308,
      "è¶£": 2309,
      "åºĹ": 2310,
      "çĽ´æİ¥": 2311,
      "Ġ=": 2312,
      "åĲĹ": 2313,
      "åħ¶ä¸Ń": 2314,
      "çĹĽ": 2315,
      "Ġhis": 2316,
      "01": 2317,
      ",æĪĳä»¬": 2318,
      "Ġboth": 2319,
      "éĻĦ": 2320,
      "viron": 2321,
      "åĲĦç§į": 2322,
      "Ġfind": 2323,
      "eg": 2324,
      "éĵģ": 2325,
      "ins": 2326,
      "ä¸¤ä¸ª": 2327,
      "çº³": 2328,
      "æĿ¡ä»¶": 2329,
      "Ġpol": 2330,
      "Ġcommun": 2331,
      "éĴĪ": 2332,
      "ç½Ĺ": 2333,
      "aw": 2334,
      "çĲĨè®º": 2335,
      "è½¯": 2336,
      "åºĶè¯¥": 2337,
      "éĩĩçĶ¨": 2338,
      "Ġvery": 2339,
      "Ġear": 2340,
      "æĻļ": 2341,
      "Ġmain": 2342,
      "åĿļ": 2343,
      "æ±ī": 2344,
      "ew": 2345,
      "è¿ĲåĬ¨": 2346,
      "ï¼Įæĺ¯": 2347,
      "åĪ©çĶ¨": 2348,
      "åĨ·": 2349,
      "å¢ŀåĬł": 2350,
      "acter": 2351,
      "ï¼ļĊ": 2352,
      "è´¨éĩı": 2353,
      "çĦ¶åĲİ": 2354,
      "Ġcall": 2355,
      "ç©ºéĹ´": 2356,
      "æıı": 2357,
      "æĿ¾": 2358,
      "ĠAn": 2359,
      "aterial": 2360,
      "å§Ķ": 2361,
      "ock": 2362,
      "Ġjust": 2363,
      "Ġent": 2364,
      "Ġsame": 2365,
      "Ġlearning": 2366,
      "è¾ĳ": 2367,
      "æĽ¾": 2368,
      "Ġgl": 2369,
      "Ġchar": 2370,
      "Ġcond": 2371,
      ",å°±": 2372,
      "å¿ħé¡»": 2373,
      "èĻ½": 2374,
      "ization": 2375,
      "Ġav": 2376,
      "æħ¢": 2377,
      "é£ŀ": 2378,
      "âĢĻt": 2379,
      "ç¯ĩ": 2380,
      "ç¬¦": 2381,
      "Ġevery": 2382,
      "ä¸Ģæł·": 2383,
      "è§£åĨ³": 2384,
      "æĦ¿": 2385,
      "âĢ¦âĢ¦": 2386,
      "ï¼Įè¿Ļ": 2387,
      "ä»¥ä¸ĭ": 2388,
      "Ġshow": 2389,
      "Ġeven": 2390,
      "Ġmy": 2391,
      "æĢ§çļĦ": 2392,
      "Ġelect": 2393,
      "ix": 2394,
      "Ġmin": 2395,
      "ec": 2396,
      "Ġorgan": 2397,
      "ond": 2398,
      "å¦Ī": 2399,
      "ĠCom": 2400,
      "æ¥¼": 2401,
      "ien": 2402,
      "æĴŃ": 2403,
      "Ġyears": 2404,
      "å®ĮæĪĲ": 2405,
      "ä¸°": 2406,
      "éĽ¨": 2407,
      "èİ·å¾Ĺ": 2408,
      "Ġfound": 2409,
      "old": 2410,
      "Ġlead": 2411,
      "Ġafter": 2412,
      "Ġtreat": 2413,
      "çĽĺ": 2414,
      "Ġgrou": 2415,
      "Ġgrow": 2416,
      "åĺ": 2417,
      "éĴŁ": 2418,
      "Ġduring": 2419,
      "ify": 2420,
      "Ġredu": 2421,
      "Ġchildren": 2422,
      "è¯Ńè¨Ģ": 2423,
      "Ġbody": 2424,
      "åŃ£": 2425,
      "Ġris": 2426,
      "çĨŁ": 2427,
      "æ¹ĸ": 2428,
      ",ä½ł": 2429,
      "èıľ": 2430,
      "éĴ¢": 2431,
      "gg": 2432,
      "è¡¨çİ°": 2433,
      "ç§ĭ": 2434,
      "å¥ĩ": 2435,
      "ç»§": 2436,
      "åĸľæ¬¢": 2437,
      "Ġrequire": 2438,
      "å½Ĵ": 2439,
      "ited": 2440,
      "çĪ¶": 2441,
      "æİĪ": 2442,
      "arm": 2443,
      "åħ°": 2444,
      "ï¼Įä»¥": 2445,
      "ä¸ĥ": 2446,
      "çĽĳ": 2447,
      "ä»¤": 2448,
      "-b": 2449,
      "ãģ": 2450,
      "ĠThey": 2451,
      "åĨ²": 2452,
      "åĲ§": 2453,
      "çīĮ": 2454,
      "other": 2455,
      "Ġworld": 2456,
      "Ġ$": 2457,
      "wn": 2458,
      "ç»¼": 2459,
      "è®¾å¤ĩ": 2460,
      "ional": 2461,
      "Ġperform": 2462,
      "ä¸įä¼ļ": 2463,
      "èľ": 2464,
      "ãĢĤè¿Ļ": 2465,
      "åĶ®": 2466,
      "æķĪæŀľ": 2467,
      "ä½Ļ": 2468,
      "ulation": 2469,
      "hip": 2470,
      "ä¿ĿæĬ¤": 2471,
      "çĺ": 2472,
      "å¯¼èĩ´": 2473,
      "io": 2474,
      "çŃĳ": 2475,
      "åī§": 2476,
      "Ġquest": 2477,
      "æľĢåĲİ": 2478,
      "Ġequ": 2479,
      "sc": 2480,
      "Ġcommon": 2481,
      "ability": 2482,
      "æľīæķĪ": 2483,
      "Ġpa": 2484,
      "Ġposs": 2485,
      "Ġless": 2486,
      "Ġident": 2487,
      "ivers": 2488,
      "imes": 2489,
      "ä¸¾": 2490,
      "Ġoften": 2491,
      "æĢİä¹Ī": 2492,
      "ä»»ä½ķ": 2493,
      "éĢı": 2494,
      "¤Ĳ": 2495,
      "ç»¿": 2496,
      "ute": 2497,
      "ĠYou": 2498,
      "inal": 2499,
      "de": 2500,
      "angu": 2501,
      "Ġfood": 2502,
      "ç´§": 2503,
      "____": 2504,
      "ä½ĵçļĦ": 2505,
      "çĶ²": 2506,
      "ä¹ĭåĲİ": 2507,
      "Ġloc": 2508,
      "ward": 2509,
      "Ġtyp": 2510,
      "ï¼Įä¹Ł": 2511,
      "æĸĩç«ł": 2512,
      "æķ°åŃ¦": 2513,
      "è´¢": 2514,
      "ined": 2515,
      "ç®Ģåįķ": 2516,
      "æįŁ": 2517,
      "ergy": 2518,
      "eng": 2519,
      "irect": 2520,
      "å·´": 2521,
      "åĽ½éĻħ": 2522,
      "å¸®åĬ©": 2523,
      "Ġmeas": 2524,
      "Ġhad": 2525,
      "Ġlife": 2526,
      "çĶļ": 2527,
      "éª¨": 2528,
      "Ġmat": 2529,
      "è°¢": 2530,
      "çĽ®æłĩ": 2531,
      "èĭ¥": 2532,
      "vironment": 2533,
      "ĠAl": 2534,
      "âĨ": 2535,
      "ty": 2536,
      "Ġbeing": 2537,
      "å®¹æĺĵ": 2538,
      "Ġmon": 2539,
      "åľĨ": 2540,
      "è¿Ľåħ¥": 2541,
      "å®ŀéĻħ": 2542,
      "èĢĥè¯ķ": 2543,
      "Ġallow": 2544,
      "Ġsmall": 2545,
      "çĽ®åīį": 2546,
      "é¡º": 2547,
      "Ġpresent": 2548,
      "hy": 2549,
      "ç³ĸ": 2550,
      "Ġpoint": 2551,
      "èµ·æĿ¥": 2552,
      "Ġback": 2553,
      "è´§": 2554,
      "ç»ĵåĲĪ": 2555,
      "æī§": 2556,
      "Ġmet": 2557,
      "Ġocc": 2558,
      "ved": 2559,
      "imate": 2560,
      "Ġsupport": 2561,
      "ä¼łç»Ł": 2562,
      "ex": 2563,
      "äººç±»": 2564,
      "åį·": 2565,
      "åįķä½į": 2566,
      "åºĬ": 2567,
      "Ġvis": 2568,
      "ä»·åĢ¼": 2569,
      "äºĨä¸Ģ": 2570,
      "cl": 2571,
      "02": 2572,
      "ffic": 2573,
      "èĭı": 2574,
      "Ġtem": 2575,
      "è¯¯": 2576,
      "itive": 2577,
      "ĠAs": 2578,
      "èĨľ": 2579,
      "æĭĽèģĺ": 2580,
      "Ġmaterial": 2581,
      "itions": 2582,
      "è¡Įä¸º": 2583,
      "çī¹åĪ«": 2584,
      "Ġthose": 2585,
      "æĳĦ": 2586,
      "Ġright": 2587,
      "ets": 2588,
      "ï¼Įæľī": 2589,
      "90": 2590,
      "agn": 2591,
      "Ġimpro": 2592,
      "ale": 2593,
      "ividual": 2594,
      ")ĊĊ": 2595,
      "hers": 2596,
      "ital": 2597,
      "åħ³äºİ": 2598,
      "æĪı": 2599,
      "éŃ": 2600,
      "Ġpract": 2601,
      "æ¯Ľ": 2602,
      "ted": 2603,
      "Ġpower": 2604,
      "æĤ£èĢħ": 2605,
      "å¤ľ": 2606,
      "æī¹": 2607,
      "åħ¶å®ŀ": 2608,
      "æĵįä½ľ": 2609,
      "ox": 2610,
      "åıįåºĶ": 2611,
      "æº¶": 2612,
      "åį«": 2613,
      "åıªæľī": 2614,
      "é¦Ĩ": 2615,
      "ç©¿": 2616,
      "âĢĿĊ": 2617,
      "rent": 2618,
      "Ġconsid": 2619,
      "èµĦæºĲ": 2620,
      "é±": 2621,
      "read": 2622,
      "é¢ĨåŁŁ": 2623,
      "å®ĥä»¬": 2624,
      "æ¯ķ": 2625,
      "æľīéĻĲ": 2626,
      "Ġbr": 2627,
      "çĶ³": 2628,
      "Ġbeh": 2629,
      "çľĭåĪ°": 2630,
      "æĪĳçļĦ": 2631,
      "Ġconf": 2632,
      "è¿ĩç¨ĭä¸Ń": 2633,
      "Ġmuch": 2634,
      "éĻĪ": 2635,
      "Ġ.": 2636,
      "æĸ°çļĦ": 2637,
      "Ġend": 2638,
      "Ġwhile": 2639,
      "ĠHe": 2640,
      "äººæ°ĳ": 2641,
      "akes": 2642,
      "Ġchang": 2643,
      "Ġwithin": 2644,
      "åĪ¤": 2645,
      "ç«¥": 2646,
      "Ġhy": 2647,
      "ving": 2648,
      "Ġlearn": 2649,
      "åģľ": 2650,
      "ium": 2651,
      "æ··": 2652,
      "ĠâĢĺ": 2653,
      "åĮĸåŃ¦": 2654,
      "é±¼": 2655,
      "Ġcent": 2656,
      "æı¡": 2657,
      "Ġstruct": 2658,
      "æ´Ĺ": 2659,
      "éĵ¶": 2660,
      "oms": 2661,
      "Ġdise": 2662,
      "åºŃ": 2663,
      "iven": 2664,
      "éĺ¿": 2665,
      "up": 2666,
      "Ġdevelopment": 2667,
      "éŁ³ä¹Ĳ": 2668,
      "çĳ": 2669,
      "æĺ¯ä¸Ģ": 2670,
      "ä»ĸçļĦ": 2671,
      "This": 2672,
      "æ°´å¹³": 2673,
      "ç»ıéªĮ": 2674,
      "Ġhuman": 2675,
      "å¤«": 2676,
      "çİ©": 2677,
      "çī©è´¨": 2678,
      "åº§": 2679,
      "Ġopt": 2680,
      "Ġprot": 2681,
      "70": 2682,
      "ateg": 2683,
      "ocial": 2684,
      "å¤ı": 2685,
      "Ġplan": 2686,
      "çĸ¾": 2687,
      "put": 2688,
      "ä¹ħ": 2689,
      "Ġfollowing": 2690,
      "ä»·æł¼": 2691,
      "éĺ´": 2692,
      "ç»ĺ": 2693,
      "æ¤įçī©": 2694,
      "Ġmem": 2695,
      "æĭį": 2696,
      "äººä»¬": 2697,
      "Ġconst": 2698,
      "æĿ¥è¯´": 2699,
      "NA": 2700,
      "uss": 2701,
      "Ġcle": 2702,
      "åĲ¯": 2703,
      "Ġtake": 2704,
      "Ġser": 2705,
      "ĠThese": 2706,
      "å¹¼": 2707,
      "è¡¨ç¤º": 2708,
      "å½¢å¼ı": 2709,
      "å³": 2710,
      "Ġhand": 2711,
      "éģ¿": 2712,
      "Ġcaus": 2713,
      "ources": 2714,
      "ä¹İ": 2715,
      "Ġdown": 2716,
      "èĭ¦": 2717,
      "âĢĿçļĦ": 2718,
      "Ġindividual": 2719,
      "Ġ[": 2720,
      "äº®": 2721,
      "é¤Ĳ": 2722,
      "æĭħ": 2723,
      "å¼Ģåıĳ": 2724,
      "åŁİå¸Ĥ": 2725,
      "Ġgood": 2726,
      "view": 2727,
      "å¾Ħ": 2728,
      "Ġmust": 2729,
      "ç»©": 2730,
      "çīĽ": 2731,
      ":ĊĊ": 2732,
      "-s": 2733,
      "ä¾§": 2734,
      "pect": 2735,
      "å¹³åı°": 2736,
      "å»ºçŃĳ": 2737,
      "é¢Ŀ": 2738,
      "åŁ¹åħ»": 2739,
      "è§¦": 2740,
      "ç§Ģ": 2741,
      "ç²¾ç¥ŀ": 2742,
      "åĬ³": 2743,
      "åŃ¦éĻ¢": 2744,
      "ä¿ĥ": 2745,
      "çĬ¶æĢģ": 2746,
      "Ġchange": 2747,
      "åİŁåĽł": 2748,
      "Ġsym": 2749,
      ",ä»¥": 2750,
      "Ġinclude": 2751,
      "Ġstart": 2752,
      "æĩ": 2753,
      "Ġphys": 2754,
      "str": 2755,
      "Ġobject": 2756,
      "æĹħ": 2757,
      "ç»¼åĲĪ": 2758,
      "èĻĳ": 2759,
      "é½": 2760,
      "èĭ±è¯Ń": 2761,
      "æŀ¶": 2762,
      "ä»£è¡¨": 2763,
      "ä¹Ŀ": 2764,
      "cent": 2765,
      "Ġlit": 2766,
      "æİĮ": 2767,
      "ier": 2768,
      "è¯¢": 2769,
      "ave": 2770,
      "line": 2771,
      "ves": 2772,
      "Ġpub": 2773,
      "åºľ": 2774,
      "Ġproduct": 2775,
      "æĶ¯æĮģ": 2776,
      "ä»ª": 2777,
      "Ġeduc": 2778,
      "ars": 2779,
      "æĿ¥æºĲ": 2780,
      "æĺ¯ä¸Ģä¸ª": 2781,
      "éķĩ": 2782,
      "çŃĶæ¡Ī": 2783,
      "Ġown": 2784,
      "ource": 2785,
      "ĠEx": 2786,
      "éĿł": 2787,
      "ĠSc": 2788,
      "Ġpot": 2789,
      "åĿĢ": 2790,
      "ä¸Ŀ": 2791,
      "oid": 2792,
      "çĤ¹åĩ»": 2793,
      "lement": 2794,
      "ä¸½": 2795,
      "çĶµåŃĲ": 2796,
      "Ġher": 2797,
      "Ġincluding": 2798,
      "åı«": 2799,
      "èĻļ": 2800,
      "è·Ŀ": 2801,
      "çĶŁåĳ½": 2802,
      "................": 2803,
      "æ°¸": 2804,
      "è¡¨è¾¾": 2805,
      "åľ°åĮº": 2806,
      "èĻ½çĦ¶": 2807,
      "Ġadv": 2808,
      "Ġcount": 2809,
      "åįł": 2810,
      "ield": 2811,
      "ä¼´": 2812,
      "æ¯Ķå¦Ĥ": 2813,
      "35": 2814,
      "rodu": 2815,
      "é¹": 2816,
      "ior": 2817,
      "å²Ĺ": 2818,
      "Ġeng": 2819,
      "å¹´çļĦ": 2820,
      "Ġet": 2821,
      "çº¸": 2822,
      "åºĵ": 2823,
      "çĶļèĩ³": 2824,
      "Ġfunction": 2825,
      "ç¬¬ä¸ī": 2826,
      "éĺ»": 2827,
      "Ġlight": 2828,
      "åĪļ": 2829,
      "æ¨¡åŀĭ": 2830,
      "Ġenvironment": 2831,
      "è¡Įä¸ļ": 2832,
      "è¿½": 2833,
      "ä¹ĭä¸Ģ": 2834,
      "æĭ¿": 2835,
      "ysis": 2836,
      "ental": 2837,
      "çĶµè¯Ŀ": 2838,
      "æ¸©åº¦": 2839,
      "è´µ": 2840,
      "ï¼İ": 2841,
      "anguage": 2842,
      "ination": 2843,
      "-t": 2844,
      "Ġcontrol": 2845,
      "çİ°ä»£": 2846,
      "è½®": 2847,
      "èº«ä½ĵ": 2848,
      "èĦ±": 2849,
      "æ²ī": 2850,
      "éģĹ": 2851,
      "Ġpos": 2852,
      "Ġproper": 2853,
      "ç§ĳæĬĢ": 2854,
      "éĩıçļĦ": 2855,
      "Ġschool": 2856,
      "ï¼ĮæĪĳ": 2857,
      "å¸ĮæľĽ": 2858,
      "Ġprovide": 2859,
      "æķħäºĭ": 2860,
      "Ġbefore": 2861,
      "æ±ł": 2862,
      ").Ċ": 2863,
      "ä¸įè¦ģ": 2864,
      "ç£ģ": 2865,
      "ä¹¡": 2866,
      "Ġgu": 2867,
      "28": 2868,
      "æ¢¦": 2869,
      "éķľ": 2870,
      "ä¸Ģæ¬¡": 2871,
      "æ¹¿": 2872,
      "Ġmult": 2873,
      "ä¿ĿæĮģ": 2874,
      "è§Ħå®ļ": 2875,
      "raph": 2876,
      "Ġpar": 2877,
      "æĸ¹åĲĳ": 2878,
      "ering": 2879,
      "æľĿ": 2880,
      "26": 2881,
      "éļľ": 2882,
      "èŃ": 2883,
      "ç²Ĵ": 2884,
      "è¡£": 2885,
      "ral": 2886,
      "æĺ¯åĲ¦": 2887,
      "æ£Ģæµĭ": 2888,
      "è®¨": 2889,
      "ä¸»ä¹ī": 2890,
      "ather": 2891,
      "èĮĥåĽ´": 2892,
      "éĺ¶æ®µ": 2893,
      "Ġstate": 2894,
      "æ²Ļ": 2895,
      "cond": 2896,
      "è¿İ": 2897,
      "03": 2898,
      "è®¡åĪĴ": 2899,
      "æĢ¥": 2900,
      "é¥®": 2901,
      "Ġhist": 2902,
      "ware": 2903,
      "ç»į": 2904,
      "Ġeas": 2905,
      "ï¼ĮæĪĳä»¬": 2906,
      "Ġlarge": 2907,
      "æ±½": 2908,
      "åľĪ": 2909,
      "èĦī": 2910,
      "und": 2911,
      "åĪĨäº«": 2912,
      "åª": 2913,
      "æ°§åĮĸ": 2914,
      "Ġpop": 2915,
      "Ġblood": 2916,
      "'t": 2917,
      ",è®©": 2918,
      "è§īå¾Ĺ": 2919,
      "cing": 2920,
      "Ġcells": 2921,
      "pos": 2922,
      "gen": 2923,
      "ä»Ĭå¤©": 2924,
      "åĬ¨çī©": 2925,
      "æĪĲåĬŁ": 2926,
      "é¡¶": 2927,
      "ãĢĤä½Ĩ": 2928,
      "è·µ": 2929,
      "å»ºè®¾": 2930,
      "åħ³éĶ®": 2931,
      "any": 2932,
      "è¾¾åĪ°": 2933,
      "ï¼Įä»İ": 2934,
      "Ġenergy": 2935,
      "åĮĹäº¬": 2936,
      "Ġcap": 2937,
      "Ġcontain": 2938,
      "å¾ĹåĪ°": 2939,
      "æŃ£ç¡®": 2940,
      "Ġcare": 2941,
      "ining": 2942,
      "ï¼īĊ": 2943,
      "æĦıä¹ī": 2944,
      "iod": 2945,
      "05": 2946,
      "åľ°æĸ¹": 2947,
      "Ġbas": 2948,
      "Ġresults": 2949,
      "éĵ¾": 2950,
      "éĿ¢çļĦ": 2951,
      "æĹłæ³ķ": 2952,
      "ä¸ĢæŃ¥": 2953,
      "éĢĲ": 2954,
      "ger": 2955,
      "ä»ĺ": 2956,
      "tt": 2957,
      "Ġdesc": 2958,
      "æ¸Ĳ": 2959,
      "ills": 2960,
      "Ġrisk": 2961,
      "æŃ¦": 2962,
      "çĤİ": 2963,
      "ç¥¨": 2964,
      "æ±¡": 2965,
      "æĢĿæĥ³": 2966,
      "èĮ¶": 2967,
      "ode": 2968,
      "æĬķèµĦ": 2969,
      "mon": 2970,
      "æĹ¶ä»£": 2971,
      "Ġtop": 2972,
      "è®¸å¤ļ": 2973,
      "å°¼": 2974,
      "ull": 2975,
      "ross": 2976,
      "ä¸įåĲĮçļĦ": 2977,
      "pen": 2978,
      "atic": 2979,
      "Ġaround": 2980,
      "face": 2981,
      "é¡¾": 2982,
      "Ġshe": 2983,
      "//": 2984,
      "Ġide": 2985,
      "èĦļ": 2986,
      "åħļ": 2987,
      "Ġdev": 2988,
      "Ġprof": 2989,
      "åĩĢ": 2990,
      "ified": 2991,
      "Ġthree": 2992,
      "å»¶": 2993,
      "ator": 2994,
      "ä½³": 2995,
      "æīįèĥ½": 2996,
      "æĺ¯åľ¨": 2997,
      "æ´²": 2998,
      "Ġmade": 2999,
      "irc": 3000,
      "ological": 3001,
      "åī¯": 3002,
      "Ġstand": 3003,
      "Ġfam": 3004,
      "Ġest": 3005,
      "åİĤ": 3006,
      "Ġoper": 3007,
      "æĭ¥": 3008,
      "ä¸Ģä¸ĭ": 3009,
      "èĵĿ": 3010,
      "è¡Ĺ": 3011,
      "çİī": 3012,
      "Ġapplic": 3013,
      "æµĵ": 3014,
      "Ġserv": 3015,
      "Ġbased": 3016,
      "ert": 3017,
      "lish": 3018,
      "ç¡¬": 3019,
      "Ġdr": 3020,
      "éľĢæ±Ĥ": 3021,
      "éĢĢ": 3022,
      "ters": 3023,
      ",ä»İ": 3024,
      "27": 3025,
      "å¿ĥçĲĨ": 3026,
      "Ġorder": 3027,
      "Ġsom": 3028,
      "ĠRes": 3029,
      "ä¸įæĸŃ": 3030,
      "ples": 3031,
      "èĤ¥": 3032,
      "ï¼īï¼Į": 3033,
      "çĽĸ": 3034,
      "Ġcal": 3035,
      "æıĲåįĩ": 3036,
      "å®Įåħ¨": 3037,
      "ĠAd": 3038,
      "ration": 3039,
      "åĩºäºĨ": 3040,
      "èĤĮ": 3041,
      "Ġtext": 3042,
      "å»ºè®®": 3043,
      "èĦĤ": 3044,
      "31": 3045,
      "ç¡®å®ļ": 3046,
      "ĠWhat": 3047,
      "æ±ĩ": 3048,
      "åĲĪä½ľ": 3049,
      "è¯ī": 3050,
      "éĩİ": 3051,
      "æ¨¡å¼ı": 3052,
      "Ġplay": 3053,
      "ç¨³å®ļ": 3054,
      "é¢ľ": 3055,
      "é²ľ": 3056,
      "èŃ¦": 3057,
      "ç¼©": 3058,
      "ĠThere": 3059,
      "çº¯": 3060,
      "ense": 3061,
      "åįĪ": 3062,
      "çļĦå¤§": 3063,
      "å¯Ĵ": 3064,
      "Ġoccur": 3065,
      "Ġmight": 3066,
      "ç¢³": 3067,
      "çļĦäºĭ": 3068,
      "æĹ¢": 3069,
      "Ġdirect": 3070,
      "Ġday": 3071,
      "meric": 3072,
      "ĠTo": 3073,
      "ä¼ĳ": 3074,
      "agement": 3075,
      "èĪŀ": 3076,
      "åİļ": 3077,
      "å°ģ": 3078,
      "å®ģ": 3079,
      "åĪĺ": 3080,
      "è¯¦": 3081,
      "Ġcour": 3082,
      "iving": 3083,
      "45": 3084,
      "ä½Ľ": 3085,
      "ç¿»": 3086,
      "ä¾ĭå¦Ĥ": 3087,
      "è°Ī": 3088,
      "åĿĲ": 3089,
      "å¾®ä¿¡": 3090,
      "åħ·ä½ĵ": 3091,
      "åĳ¼": 3092,
      "ä»į": 3093,
      "Ġcurrent": 3094,
      "Ġcause": 3095,
      "ledge": 3096,
      "çĶ¨æĪ·": 3097,
      "ĠDe": 3098,
      "å®ŀè·µ": 3099,
      "Ġpaper": 3100,
      "-d": 3101,
      "Ġess": 3102,
      "ä»ĭç»į": 3103,
      "åĲĮåŃ¦": 3104,
      "èįĲ": 3105,
      "çī¹çĤ¹": 3106,
      "éĽª": 3107,
      "è¿ĻéĩĮ": 3108,
      "ãĢĤ$": 3109,
      "erest": 3110,
      "ĠHowever": 3111,
      "æĭŁ": 3112,
      "Ġwithout": 3113,
      "Ġsystems": 3114,
      "Ġcontin": 3115,
      "Ġsocial": 3116,
      "rop": 3117,
      "ole": 3118,
      "Ġpur": 3119,
      "é¸¡": 3120,
      "iness": 3121,
      "å°ıæĹ¶": 3122,
      "ication": 3123,
      "ids": 3124,
      "æľīåħ³": 3125,
      "ner": 3126,
      "Ġcalled": 3127,
      "ä¸ºä»Ģä¹Ī": 3128,
      "St": 3129,
      "æľ«": 3130,
      "èļ": 3131,
      "æĪĳä»¬çļĦ": 3132,
      "lu": 3133,
      "ç¨ĭåºı": 3134,
      "Ġnon": 3135,
      "perature": 3136,
      "Ġiss": 3137,
      "tle": 3138,
      "åĵĪ": 3139,
      "Ġspecific": 3140,
      "éĿ©": 3141,
      "æ¬§": 3142,
      "æ¯ıä¸ª": 3143,
      "çĥŁ": 3144,
      "Ġcomput": 3145,
      "åģı": 3146,
      "etter": 3147,
      "Ġ/": 3148,
      ",ä»ĸ": 3149,
      "ption": 3150,
      "ince": 3151,
      "å®ľ": 3152,
      "Ġche": 3153,
      "æĿŁ": 3154,
      "ç³»åĪĹ": 3155,
      "oad": 3156,
      "32": 3157,
      "æĶ¹åıĺ": 3158,
      "Ġtype": 3159,
      "æĻºèĥ½": 3160,
      "çĮ®": 3161,
      "par": 3162,
      "çĶ°": 3163,
      "ä½įç½®": 3164,
      "åį±": 3165,
      "Ġknown": 3166,
      "äº¤æµģ": 3167,
      "ected": 3168,
      "éļıçĿĢ": 3169,
      "è¯´æĺİ": 3170,
      "ared": 3171,
      "ients": 3172,
      "éĢłæĪĲ": 3173,
      "èĢĲ": 3174,
      "å¹ħ": 3175,
      "è¯Ĭ": 3176,
      "inc": 3177,
      "Ġsw": 3178,
      "åŃĶ": 3179,
      "æĦŁè§ī": 3180,
      "åĩıå°ĳ": 3181,
      "èµĦæĸĻ": 3182,
      "èĪª": 3183,
      ",åı¯ä»¥": 3184,
      "äº¿": 3185,
      "åıĤèĢĥ": 3186,
      "éĢļå¸¸": 3187,
      "iversity": 3188,
      "å®½": 3189,
      "ocus": 3190,
      "åĩºæĿ¥": 3191,
      "ä¸ĢçĽ´": 3192,
      "å¹¸": 3193,
      "itional": 3194,
      "Ġmean": 3195,
      "æīĺ": 3196,
      "çĸ¾çĹħ": 3197,
      "less": 3198,
      "Ġsignific": 3199,
      "29": 3200,
      "æķ°åŃĹ": 3201,
      "åĽłç´ł": 3202,
      "åĤ¨": 3203,
      "å±ŀäºİ": 3204,
      "Ġwant": 3205,
      "çī©çĲĨ": 3206,
      "ä¸įä»ħ": 3207,
      "ven": 3208,
      "Ġpossible": 3209,
      "the": 3210,
      "bers": 3211,
      "ç¬ĳ": 3212,
      "conom": 3213,
      "çĽĲ": 3214,
      "é¾Ħ": 3215,
      "åĳĪ": 3216,
      "æµĭè¯ķ": 3217,
      "å·§": 3218,
      "etic": 3219,
      "Ġdeterm": 3220,
      "Ġconn": 3221,
      "me": 3222,
      "Ġbre": 3223,
      "éĩįçĤ¹": 3224,
      "æ¯ıå¤©": 3225,
      "èµı": 3226,
      "Ġaffect": 3227,
      "æ´ĭ": 3228,
      "æĬĺ": 3229,
      "å¯»": 3230,
      "Ġbehav": 3231,
      "08": 3232,
      "è¯ĳ": 3233,
      "âĹ": 3234,
      "çĸĳ": 3235,
      "è§Ĩé¢ĳ": 3236,
      "ç±»åŀĭ": 3237,
      "ç¼ĺ": 3238,
      "Ġkey": 3239,
      "ĠAr": 3240,
      "çĩĥ": 3241,
      "æĢĢ": 3242,
      "è¡¡": 3243,
      "èĽĭçĻ½": 3244,
      "Ġbrain": 3245,
      "åĩºçļĦ": 3246,
      "åıªæĺ¯": 3247,
      "ĠEng": 3248,
      "ished": 3249,
      "çĥ§": 3250,
      "Ġbuild": 3251,
      "ãĢĤ\"": 3252,
      "Ġlanguage": 3253,
      "ï¼Įå¦Ĥ": 3254,
      "åĪĨåŃĲ": 3255,
      "æİ¨èįĲ": 3256,
      "æī©": 3257,
      "ccess": 3258,
      "Ġimm": 3259,
      "æĬ¥åĲį": 3260,
      "aj": 3261,
      "æĺ¾ç¤º": 3262,
      "Ġtool": 3263,
      "Ġlow": 3264,
      "éĻįä½İ": 3265,
      "Ġmeans": 3266,
      "åĪĽæĸ°": 3267,
      "Ġdisease": 3268,
      "ä¸°å¯Į": 3269,
      "arent": 3270,
      "ogn": 3271,
      "ä¸ľè¥¿": 3272,
      "å®£": 3273,
      "over": 3274,
      "æĽ´åĬł": 3275,
      "ision": 3276,
      "ash": 3277,
      "ä¹ĭåīį": 3278,
      "Ġparticular": 3279,
      "åĩĿ": 3280,
      "ä¼°": 3281,
      "åĪĨéĴŁ": 3282,
      "Ġproject": 3283,
      "åıĤä¸İ": 3284,
      "ï¼ļâĢľ": 3285,
      "icro": 3286,
      "ĠAmeric": 3287,
      "self": 3288,
      ",åı¯": 3289,
      "è¸": 3290,
      "Ġprogram": 3291,
      "Ġmus": 3292,
      "éľ²": 3293,
      "Ġimpact": 3294,
      "Ġcreate": 3295,
      "Ġmove": 3296,
      ",å¯¹": 3297,
      "Ġdon": 3298,
      "ÂłĠÂłĠ": 3299,
      "éĢŁåº¦": 3300,
      "çī¹å¾ģ": 3301,
      "åħ¨åĽ½": 3302,
      "bs": 3303,
      "Ġagain": 3304,
      "Ġmeasure": 3305,
      "ç¼ĵ": 3306,
      "04": 3307,
      "ĠWhen": 3308,
      "æľīéĻĲåħ¬åı¸": 3309,
      "åĽ¢éĺŁ": 3310,
      "rap": 3311,
      "åĨĮ": 3312,
      "reen": 3313,
      ".,": 3314,
      "Ġinvol": 3315,
      "èĥ¶": 3316,
      "åĽ°": 3317,
      "ency": 3318,
      "Ġ&": 3319,
      "Ġlim": 3320,
      "ç»ĦæĪĲ": 3321,
      "$$": 3322,
      "å»ºç«ĭ": 3323,
      "Ġreal": 3324,
      "çĻ»": 3325,
      "ç¤¼": 3326,
      "ç¨İ": 3327,
      "sw": 3328,
      "èĻ«": 3329,
      "é£İéĻ©": 3330,
      "Ġfeel": 3331,
      "enef": 3332,
      "Ġtemperature": 3333,
      "éĹ»": 3334,
      "å·¥ä¸ļ": 3335,
      "Ġwords": 3336,
      "èĶ": 3337,
      "Ġve": 3338,
      "way": 3339,
      "åİĭåĬĽ": 3340,
      "ä¸įåı¯": 3341,
      "ĠQ": 3342,
      "å°±ä¼ļ": 3343,
      "mm": 3344,
      "åĶĲ": 3345,
      "åĢĴ": 3346,
      "æĢ§èĥ½": 3347,
      "Ġnow": 3348,
      "Ġgroup": 3349,
      "æī«": 3350,
      "è¿Ļæł·çļĦ": 3351,
      "Ġ,": 3352,
      "éĽħ": 3353,
      "éĥ½æľī": 3354,
      "æ³Ľ": 3355,
      "Ġair": 3356,
      "Ġpotential": 3357,
      "åĢŁ": 3358,
      "åħ¨çĲĥ": 3359,
      "ason": 3360,
      "æĢĿç»´": 3361,
      "çĽ®çļĦ": 3362,
      "èĤĿ": 3363,
      "What": 3364,
      "Ġlet": 3365,
      "ee": 3366,
      "iver": 3367,
      "Ġbel": 3368,
      "å¨ģ": 3369,
      "çĻĮ": 3370,
      "å©ļ": 3371,
      "å®¶åºŃ": 3372,
      "æ·»": 3373,
      "å®Ī": 3374,
      "å¢¨": 3375,
      "Ġtreatment": 3376,
      "Ġbi": 3377,
      "Ġeffective": 3378,
      "åĨ°": 3379,
      "åĪº": 3380,
      "åĩĨå¤ĩ": 3381,
      "Ġret": 3382,
      "ç«ŀ": 3383,
      "air": 3384,
      "è®¤è¯Ĩ": 3385,
      "æĺ¯ä¸Ģç§į": 3386,
      "ote": 3387,
      "çļĦå°ı": 3388,
      "Ġproblem": 3389,
      "cul": 3390,
      "ç´¯": 3391,
      "æĸ¹æ¡Ī": 3392,
      ",è¿ĺ": 3393,
      "pr": 3394,
      "æĸĩåŃ¦": 3395,
      "å¡ĳ": 3396,
      "å·¦åı³": 3397,
      "olution": 3398,
      "Ġtoo": 3399,
      "Ġpress": 3400,
      "ä¹Ļ": 3401,
      "æĪĲç»©": 3402,
      "å¼¹": 3403,
      "çĿ¡": 3404,
      "æľªæĿ¥": 3405,
      "ï¼Įåħ¶": 3406,
      "Ġcreat": 3407,
      "Ġanim": 3408,
      "Ġsit": 3409,
      "ER": 3410,
      "å¼±": 3411,
      "ä¸Ĭæµ·": 3412,
      "æĺİæĺ¾": 3413,
      "ention": 3414,
      "åĬª": 3415,
      "æĮ¥": 3416,
      "ead": 3417,
      "æľºæŀĦ": 3418,
      ",æīĢä»¥": 3419,
      "è®Ńç»ĥ": 3420,
      "èĢĥèĻĳ": 3421,
      "Ġreport": 3422,
      "Ġcase": 3423,
      "çģ¯": 3424,
      "Ġsens": 3425,
      "è°ģ": 3426,
      "Ġlist": 3427,
      "éĽ¶": 3428,
      "Ġinterest": 3429,
      "ĠTe": 3430,
      "ç¾İæľ¯": 3431,
      "å·¥åħ·": 3432,
      "Ġavail": 3433,
      "Ġaccess": 3434,
      "Ġhig": 3435,
      "Ġanalysis": 3436,
      "Ġpain": 3437,
      "Ġartic": 3438,
      "åªĴ": 3439,
      "ways": 3440,
      "Ġsaf": 3441,
      "è§Ĥå¯Ł": 3442,
      "å°¤": 3443,
      "åįĸ": 3444,
      "æĮģç»Ń": 3445,
      "å°ļ": 3446,
      "Ġbetter": 3447,
      "Ġthough": 3448,
      "-f": 3449,
      "åĨ³å®ļ": 3450,
      "Ġmark": 3451,
      "Ġfocus": 3452,
      "æ´¾": 3453,
      "åĨ¬": 3454,
      "07": 3455,
      "å¼ķèµ·": 3456,
      "36": 3457,
      "ç¥ŀç»ı": 3458,
      "æ¦Ĥå¿µ": 3459,
      "ç»§ç»Ń": 3460,
      "è¡¨éĿ¢": 3461,
      "Ġkeep": 3462,
      "å²Ĺä½į": 3463,
      "é¦ĸåħĪ": 3464,
      "Ġcult": 3465,
      "åĩºçīĪ": 3466,
      "åıĤåĬł": 3467,
      "Ġbest": 3468,
      "ury": 3469,
      "Ġnat": 3470,
      "==": 3471,
      "ently": 3472,
      "nal": 3473,
      "æĦıè¯Ĩ": 3474,
      "ertain": 3475,
      "Ġpass": 3476,
      "Ġchanges": 3477,
      "09": 3478,
      "ãĢĮ": 3479,
      "ä¹ĭéĹ´çļĦ": 3480,
      "Ġcharacter": 3481,
      "è´£ä»»": 3482,
      "Ùī": 3483,
      "urther": 3484,
      "ç¹": 3485,
      "Ġproblems": 3486,
      "Ġsever": 3487,
      "$P": 3488,
      "æŃ£å¸¸": 3489,
      "ĠPl": 3490,
      "éĻ¤äºĨ": 3491,
      "99": 3492,
      "ä½ĵéªĮ": 3493,
      "ãĢį": 3494,
      "Ġflow": 3495,
      "port": 3496,
      "Ġplace": 3497,
      "Ġcomb": 3498,
      "å·¨": 3499,
      "éĩĳå±ŀ": 3500,
      "Ġfil": 3501,
      "å¿Ĩ": 3502,
      "æ»ĳ": 3503,
      "çĽĽ": 3504,
      "è´´": 3505,
      "ï¼Įåı¯ä»¥": 3506,
      "Ġteac": 3507,
      "é¡µ": 3508,
      "ç¨ĭåº¦": 3509,
      "æĸĩä»¶": 3510,
      "æ¶¦": 3511,
      "å®¢æĪ·": 3512,
      "Ġline": 3513,
      "ane": 3514,
      "requ": 3515,
      "Ġsignificant": 3516,
      "arc": 3517,
      "ç»ĥä¹ł": 3518,
      "ances": 3519,
      "æĿĢ": 3520,
      "åħ¬ä¼Ĺ": 3521,
      "èĤł": 3522,
      "Ġstep": 3523,
      "å´": 3524,
      "cle": 3525,
      "æķı": 3526,
      "Ġarea": 3527,
      "å¡«": 3528,
      "Ġtre": 3529,
      "Ġvol": 3530,
      "å®ĩ": 3531,
      "æ³ķå¾ĭ": 3532,
      "åıĳå¸ĥ": 3533,
      "idence": 3534,
      ",å¦Ĥ": 3535,
      "Ġsecond": 3536,
      "åĿı": 3537,
      "ilar": 3538,
      "Ġindu": 3539,
      "Ġperiod": 3540,
      "åĪĽä½ľ": 3541,
      "Ġknowledge": 3542,
      "âĢĿãĢĤ": 3543,
      "éļĲ": 3544,
      "æ¡¥": 3545,
      "éģį": 3546,
      "æĥ¯": 3547,
      "å¾ª": 3548,
      "Ġsl": 3549,
      "éĩįè¦ģçļĦ": 3550,
      "æĦŁåıĹ": 3551,
      "æĻ¶": 3552,
      "ï¼Įå®ĥ": 3553,
      "äºĪ": 3554,
      "çīĻ": 3555,
      "\"çļĦ": 3556,
      "åĪĨåĪ«": 3557,
      "AR": 3558,
      "åĬªåĬĽ": 3559,
      "èĤº": 3560,
      "èĤ¿": 3561,
      "Ġanother": 3562,
      "è¶ħè¿ĩ": 3563,
      "æĮīçħ§": 3564,
      "ç»ıè¿ĩ": 3565,
      "æĿ¥èĩª": 3566,
      "06": 3567,
      "Ġcost": 3568,
      "Ġcirc": 3569,
      "gin": 3570,
      "åĪĽéĢł": 3571,
      "ç§°ä¸º": 3572,
      "ĠCl": 3573,
      "ä¸»é¢ĺ": 3574,
      "æĶ¿åºľ": 3575,
      "æĲŃ": 3576,
      "ptoms": 3577,
      "Ġfew": 3578,
      "éĢĶ": 3579,
      "åľ°åĿĢ": 3580,
      "çĶ¨çļĦ": 3581,
      "ç§¯æŀģ": 3582,
      "æ£ĢæŁ¥": 3583,
      "Ġareas": 3584,
      "land": 3585,
      "æľīçļĦ": 3586,
      "æ¾": 3587,
      "èĤ¤": 3588,
      "Ġey": 3589,
      "ploy": 3590,
      "Ġdiscuss": 3591,
      "çľŁæŃ£": 3592,
      "ÃĹ": 3593,
      "ä¸ĸçºª": 3594,
      "æ¶ī": 3595,
      "çĽ¸å¯¹": 3596,
      "å¹¼åĦ¿": 3597,
      "Ġscient": 3598,
      "ĠInd": 3599,
      "ories": 3600,
      ",ä½Ĩæĺ¯": 3601,
      "Ġspecies": 3602,
      "æİĮæı¡": 3603,
      "åĶ±": 3604,
      "æ¯ķä¸ļ": 3605,
      "ï¼Įå¯¹": 3606,
      "Ġable": 3607,
      "Ġrad": 3608,
      "Ġdel": 3609,
      "æķ´ä¸ª": 3610,
      "ï¼Įä½¿": 3611,
      "omen": 3612,
      "min": 3613,
      "éĽ·": 3614,
      "åħ±åĲĮ": 3615,
      "æĢĿèĢĥ": 3616,
      "Ġbenef": 3617,
      "è±Ĩ": 3618,
      "Ġel": 3619,
      "ression": 3620,
      "Ġimprove": 3621,
      "Ġlook": 3622,
      "Ġopp": 3623,
      "ograph": 3624,
      "å°ıåŃ¦": 3625,
      "Ġant": 3626,
      "å·Ŀ": 3627,
      "æĩĤ": 3628,
      "ards": 3629,
      "33": 3630,
      "Ġcrit": 3631,
      "è®¾ç½®": 3632,
      "ðŁ": 3633,
      "æī§è¡Į": 3634,
      "-c": 3635,
      "æ°¢": 3636,
      "è°ĵ": 3637,
      "AT": 3638,
      "ique": 3639,
      "çŃ¾": 3640,
      "å²Ľ": 3641,
      "çİ°è±¡": 3642,
      "Ġwhy": 3643,
      "ä½ĵç³»": 3644,
      "åĮºåŁŁ": 3645,
      "åĲİçļĦ": 3646,
      "èĥľ": 3647,
      "oint": 3648,
      "ãĢĤå¦Ĥæŀľ": 3649,
      "æĮĩå¯¼": 3650,
      "èĩªåĬ¨": 3651,
      "ç¹ģ": 3652,
      "Ġconditions": 3653,
      "por": 3654,
      "åĢį": 3655,
      "ï¼ŁĊ": 3656,
      "äººçĶŁ": 3657,
      "ieve": 3658,
      "è½¯ä»¶": 3659,
      "Ġvalue": 3660,
      "çĦ¦": 3661,
      "Ġstill": 3662,
      "åĽ¾çīĩ": 3663,
      "oun": 3664,
      "é«ĺçļĦ": 3665,
      "Ġtypes": 3666,
      "Ġprevent": 3667,
      "åŁºåĽł": 3668,
      "è°±": 3669,
      "çĶ³è¯·": 3670,
      "Ġobs": 3671,
      "Ġvarious": 3672,
      "Ġincrease": 3673,
      "å¸Ŀ": 3674,
      "åºŁ": 3675,
      "iple": 3676,
      "æļĸ": 3677,
      "åĬ±": 3678,
      ",å¦Ĥæŀľ": 3679,
      "ä¿ĥè¿Ľ": 3680,
      "Ġassoci": 3681,
      "ID": 3682,
      "é¥°": 3683,
      "æľĢç»Ī": 3684,
      "alu": 3685,
      "åĬłåħ¥": 3686,
      "èĥĥ": 3687,
      "ern": 3688,
      "æ¸¸æĪı": 3689,
      "æł¸å¿ĥ": 3690,
      "Ġbecome": 3691,
      "ï¼Įä¸Ģ": 3692,
      "æĿ¨": 3693,
      "å®¶éķ¿": 3694,
      "ç®±": 3695,
      "éĢĤåĲĪ": 3696,
      "çĪĨ": 3697,
      "è¿Ľä¸ĢæŃ¥": 3698,
      "ãĢĤèĢĮ": 3699,
      "resent": 3700,
      "Ġrest": 3701,
      "Ġdue": 3702,
      "Ġinvest": 3703,
      ":\"": 3704,
      "èĢ³": 3705,
      "ww": 3706,
      "åĨł": 3707,
      "æµª": 3708,
      "ajor": 3709,
      "ĠSh": 3710,
      "åĮ»éĻ¢": 3711,
      "uro": 3712,
      "çļĦéĹ®é¢ĺ": 3713,
      "|Ċ": 3714,
      "Ġamount": 3715,
      "å·¥èīº": 3716,
      "Ġgreat": 3717,
      "ï½": 3718,
      "éļĶ": 3719,
      "ĠBut": 3720,
      "Ġcy": 3721,
      "Ġspace": 3722,
      "åĪ¶ä½ľ": 3723,
      "Ġter": 3724,
      "åĪĨä¸º": 3725,
      "\"Ċ": 3726,
      "ä¹³": 3727,
      "Ġchem": 3728,
      "å¥¥": 3729,
      "ï¼Įå°±": 3730,
      "Ġer": 3731,
      "å¤įæĿĤ": 3732,
      "é¥Ń": 3733,
      "æĢķ": 3734,
      "åĲī": 3735,
      "çĥĪ": 3736,
      "not": 3737,
      "ä»»åĬ¡": 3738,
      "day": 3739,
      "åĦ¿ç«¥": 3740,
      "éģ¿åħį": 3741,
      "elf": 3742,
      "Ġunderstanding": 3743,
      "AS": 3744,
      "ification": 3745,
      "Ġauth": 3746,
      "Ġavailable": 3747,
      "å°º": 3748,
      "è¾ħ": 3749,
      "Ġes": 3750,
      "ä¿¡åı·": 3751,
      "æķĻæİĪ": 3752,
      "ç§ĺ": 3753,
      "-p": 3754,
      "æĭ¥æľī": 3755,
      "è¯¾åłĤ": 3756,
      ",ä¸º": 3757,
      "åķĬ": 3758,
      "æĹ§": 3759,
      "of": 3760,
      "Ġens": 3761,
      "Ġskills": 3762,
      "æİī": 3763,
      "çŁ¿": 3764,
      "æĮĳ": 3765,
      "Ġseveral": 3766,
      "Ġlevels": 3767,
      "å³°": 3768,
      "chan": 3769,
      "Ġfin": 3770,
      "è°ĥæķ´": 3771,
      "éĤ£äºĽ": 3772,
      "Ġname": 3773,
      "èĦı": 3774,
      "Ġexperience": 3775,
      "atory": 3776,
      "ides": 3777,
      "åį³åı¯": 3778,
      "Ġdescrib": 3779,
      "We": 3780,
      "ret": 3781,
      "å¯¹è±¡": 3782,
      "åĮĸçļĦ": 3783,
      "æĬ½": 3784,
      "yn": 3785,
      "ãĢĤâĢĿ": 3786,
      "å®Ĺ": 3787,
      "æĻ®éĢļ": 3788,
      "èĩªçĶ±": 3789,
      "æµĭéĩı": 3790,
      "åŁºäºİ": 3791,
      "æ³¡": 3792,
      "----------------": 3793,
      "abor": 3794,
      "Ġapproach": 3795,
      "Ġbus": 3796,
      "âĦ": 3797,
      "æĺł": 3798,
      "åŃ¦ç§ĳ": 3799,
      "ording": 3800,
      "éº»": 3801,
      "åħĥç´ł": 3802,
      "çľŁçļĦ": 3803,
      "æīĭæľº": 3804,
      "Ġhapp": 3805,
      "é½Ĳ": 3806,
      ",åĽłä¸º": 3807,
      "æĪĳåĽ½": 3808,
      "âĺ": 3809,
      "å½ĵçĦ¶": 3810,
      "ling": 3811,
      "ï¼Įåı¯": 3812,
      "Ġconcept": 3813,
      "çŀ": 3814,
      "Ġfac": 3815,
      "ats": 3816,
      "Ġgiven": 3817,
      "ĠWh": 3818,
      "Ġdam": 3819,
      "Ġactivity": 3820,
      "å¥¶": 3821,
      "æ²Ł": 3822,
      "æľºä¼ļ": 3823,
      "Ġstructure": 3824,
      "ivity": 3825,
      "Ġfield": 3826,
      "æĪĲæľ¬": 3827,
      ".com": 3828,
      "ends": 3829,
      "duct": 3830,
      "ä¸ĢçĤ¹": 3831,
      "Ġsing": 3832,
      "çĦ¶èĢĮ": 3833,
      "Ġmot": 3834,
      "Ġeffects": 3835,
      "Ġpost": 3836,
      "ä¸´åºĬ": 3837,
      "ries": 3838,
      "ĠAnd": 3839,
      "æİ¥åıĹ": 3840,
      "If": 3841,
      "Ġactivities": 3842,
      "ä¹¦æ³ķ": 3843,
      "app": 3844,
      "-m": 3845,
      "ym": 3846,
      "Ġmethods": 3847,
      "ouse": 3848,
      "oh": 3849,
      "æĹ¶æľŁ": 3850,
      "Ġrele": 3851,
      "bon": 3852,
      "è£Ĥ": 3853,
      "ĠPh": 3854,
      "ãĢĭĊ": 3855,
      "è®¿": 3856,
      "çī©çļĦ": 3857,
      "ĠçļĦ": 3858,
      "Ġusually": 3859,
      "Ġflu": 3860,
      "å®«": 3861,
      "Ġcertain": 3862,
      "åĴ¨": 3863,
      "ank": 3864,
      "éķ¿æľŁ": 3865,
      "çº¹": 3866,
      "Ġstrateg": 3867,
      "æ·¡": 3868,
      "Ġsurface": 3869,
      "Ġcorre": 3870,
      "ä¸ĭçļĦ": 3871,
      "åıªè¦ģ": 3872,
      "æ´ģ": 3873,
      "æŁ¥çľĭ": 3874,
      "ç»ª": 3875,
      "br": 3876,
      "åŃ¦çĶŁçļĦ": 3877,
      "Ġopen": 3878,
      "âĢĵ": 3879,
      "èĸª": 3880,
      "ç¨¿": 3881,
      "æ¸¯": 3882,
      "ables": 3883,
      "osed": 3884,
      "Ġthings": 3885,
      "Ġrun": 3886,
      "ES": 3887,
      "Ġlay": 3888,
      "æ¼«": 3889,
      "ape": 3890,
      "ĠEn": 3891,
      ",\"": 3892,
      "çļĦå½±åĵį": 3893,
      "Ġeconom": 3894,
      "icult": 3895,
      "é¸Ł": 3896,
      "åŁ¹è®Ń": 3897,
      "æĹĭ": 3898,
      "åħ´è¶£": 3899,
      "åºĨ": 3900,
      "ext": 3901,
      "å°¿": 3902,
      "åĵģçīĮ": 3903,
      "è·ĳ": 3904,
      "æ±½è½¦": 3905,
      "ormal": 3906,
      "uture": 3907,
      "å¥ı": 3908,
      "erc": 3909,
      "éĨĴ": 3910,
      "Ġstudies": 3911,
      "åĴ¨è¯¢": 3912,
      "Ġdid": 3913,
      "çĴ": 3914,
      "ystem": 3915,
      "è°·": 3916,
      "çĶŁæĢģ": 3917,
      "æķĳ": 3918,
      "å®ĭ": 3919,
      "å¤ªéĺ³": 3920,
      "äºĮç»´": 3921,
      "åĪĨå¸ĥ": 3922,
      "osp": 3923,
      "å¼Ģå±ķ": 3924,
      "Ġdig": 3925,
      "IS": 3926,
      "åİħ": 3927,
      "å¿«éĢŁ": 3928,
      "æĶ¿çŃĸ": 3929,
      "Ġz": 3930,
      "åĵ¥": 3931,
      "åĽ½åĨħ": 3932,
      "æĬĳ": 3933,
      "Ġterm": 3934,
      "Ġrange": 3935,
      "æ¶Īè´¹": 3936,
      "Ġcomplex": 3937,
      "Ġquestions": 3938,
      "ots": 3939,
      "Ġmaking": 3940,
      "ĠSe": 3941,
      "æ½ľ": 3942,
      "æĥħåĨµä¸ĭ": 3943,
      "å½ĵæĹ¶": 3944,
      "Ġheart": 3945,
      "åıĬæĹ¶": 3946,
      "ç§ģ": 3947,
      "è®ºæĸĩ": 3948,
      "itor": 3949,
      "èį£": 3950,
      "æ³¥": 3951,
      "éĥ½ä¼ļ": 3952,
      "Ġsymptoms": 3953,
      "Ġele": 3954,
      "Ġneeds": 3955,
      "æĸĹ": 3956,
      "æģ¶": 3957,
      "æĥĬ": 3958,
      "Ġnetw": 3959,
      "Ġmajor": 3960,
      "çļĦè¯Ŀ": 3961,
      "ended": 3962,
      "æĶ¿æ²»": 3963,
      "è§£éĩĬ": 3964,
      "äº§ä¸ļ": 3965,
      "utions": 3966,
      "å¸ģ": 3967,
      "ission": 3968,
      "ggest": 3969,
      "æ»¡è¶³": 3970,
      "Ġhere": 3971,
      "åľ°çĲĥ": 3972,
      "Ġhigher": 3973,
      "éĹŃ": 3974,
      "Ġworks": 3975,
      "çĪ¶æ¯į": 3976,
      "éĩĮçļĦ": 3977,
      "å±Ĭ": 3978,
      ",å¤§": 3979,
      "æ±¤": 3980,
      "çĶµå½±": 3981,
      "ont": 3982,
      "åĿļæĮģ": 3983,
      "ä¸ĭæĿ¥": 3984,
      "é¢Ĺ": 3985,
      "Ġcontent": 3986,
      "èį·": 3987,
      "omm": 3988,
      "55": 3989,
      "Ġwhe": 3990,
      "Ġrelations": 3991,
      "éĻĨ": 3992,
      "Ġview": 3993,
      "75": 3994,
      "IN": 3995,
      "ä¸ģ": 3996,
      "Ġpred": 3997,
      "Ġfore": 3998,
      "çĶŁéķ¿": 3999,
      "èµŀ": 4000,
      "éĶĢåĶ®": 4001,
      "Ġpublic": 4002,
      "How": 4003,
      "å®ĥçļĦ": 4004,
      "Ġplant": 4005,
      "asing": 4006,
      "ãĢĤæĪĳ": 4007,
      "ç¬¦åĲĪ": 4008,
      "Ġshort": 4009,
      "ä¼ĺç§Ģ": 4010,
      "åº¦çļĦ": 4011,
      "pecial": 4012,
      "Ġhome": 4013,
      "AC": 4014,
      "Ġsuccess": 4015,
      "Ġgr": 4016,
      "äº¤éĢļ": 4017,
      "æĬ¥åĳĬ": 4018,
      "æĮ¯": 4019,
      "å°¾": 4020,
      "æ°ı": 4021,
      "ä¾µ": 4022,
      "It": 4023,
      "Ġage": 4024,
      "ators": 4025,
      "Ġsaid": 4026,
      "é¼ĵ": 4027,
      "ĠĊ": 4028,
      "els": 4029,
      "Ġeducation": 4030,
      "Ġtimes": 4031,
      "è¯Ħä»·": 4032,
      "mit": 4033,
      "æ®Ĭ": 4034,
      "æĽ¿": 4035,
      "åĪ°çļĦ": 4036,
      "âĢ¢": 4037,
      "ann": 4038,
      "ä¸ļåĬ¡": 4039,
      "è¯ĨåĪ«": 4040,
      "ä¸¥éĩį": 4041,
      "Ġassess": 4042,
      "éĢĴ": 4043,
      "Ġfree": 4044,
      "ĠX": 4045,
      "çĭ¬ç«ĭ": 4046,
      "è¿ĲçĶ¨": 4047,
      "34": 4048,
      "è¿Ĳè¡Į": 4049,
      "ç¦»åŃĲ": 4050,
      "Â·Â·": 4051,
      "æĹ¥æľ¬": 4052,
      ")ãĢģ": 4053,
      "Ġcourse": 4054,
      "Ġexist": 4055,
      "éĿ¢ç§¯": 4056,
      "è¿ŀæİ¥": 4057,
      "æĪĲéķ¿": 4058,
      "ä¹łæĥ¯": 4059,
      "æµ®": 4060,
      "ived": 4061,
      "Ġenc": 4062,
      "ĠZ": 4063,
      "Ġprom": 4064,
      "Ġaccount": 4065,
      "Ġland": 4066,
      "ething": 4067,
      "çĺ¤": 4068,
      "gs": 4069,
      "ains": 4070,
      "iation": 4071,
      "Ġothers": 4072,
      "åŃ¦ä¼ļ": 4073,
      "çļĦæĸ¹æ³ķ": 4074,
      "åĩłä¸ª": 4075,
      "Ġansw": 4076,
      "åĩ½": 4077,
      "Ġnatural": 4078,
      "aching": 4079,
      "ilities": 4080,
      "ç«Ł": 4081,
      "æĸĩåŃĹ": 4082,
      "èĭĹ": 4083,
      "é»ĺ": 4084,
      "ĠUniversity": 4085,
      "95": 4086,
      "://": 4087,
      "Ġtechnology": 4088,
      "Ġchall": 4089,
      "ç´«": 4090,
      "å«": 4091,
      "ä¸īä¸ª": 4092,
      "38": 4093,
      "æĹłè®º": 4094,
      "è§Ī": 4095,
      "ï¼ĮæīĢä»¥": 4096,
      "è®°å½ķ": 4097,
      "ä¿Ŀè¯ģ": 4098,
      "çĹħæ¯Ĵ": 4099,
      "Ġvir": 4100,
      "ortun": 4101,
      "Ġsuggest": 4102,
      "è´Łè´£": 4103,
      "ç»ıå¸¸": 4104,
      "èħ¹": 4105,
      "äº¡": 4106,
      "Ġsimilar": 4107,
      "Ġprim": 4108,
      "èī²çļĦ": 4109,
      "å£ģ": 4110,
      "Ġrole": 4111,
      "æ·»åĬł": 4112,
      "Ġperformance": 4113,
      "æł·çļĦ": 4114,
      "Ġphysical": 4115,
      "Ġhistory": 4116,
      "Ġ+": 4117,
      "åĪ¶éĢł": 4118,
      "å¹¿æ³Ľ": 4119,
      "Ġbook": 4120,
      "-l": 4121,
      "æ¯«": 4122,
      ",éĤ£": 4123,
      "action": 4124,
      "ä»ĸä»¬çļĦ": 4125,
      "aging": 4126,
      "æıĴ": 4127,
      "ik": 4128,
      "Ġhard": 4129,
      "raw": 4130,
      "è®¢": 4131,
      "Ġsec": 4132,
      "Ġcomplete": 4133,
      "ending": 4134,
      "æ¢°": 4135,
      "ĠSo": 4136,
      "åĸĿ": 4137,
      "åľ£": 4138,
      "è·Ŀç¦»": 4139,
      "éĴĪå¯¹": 4140,
      "fer": 4141,
      "æĿ¥è¶Ĭ": 4142,
      "å¡ŀ": 4143,
      "æļĹ": 4144,
      "åħĪçĶŁ": 4145,
      "Ġquality": 4146,
      "ä¹Łä¸į": 4147,
      "Ġach": 4148,
      "èĥ¡": 4149,
      "æľŁéĹ´": 4150,
      "èĴĻ": 4151,
      "å¤ļå°ĳ": 4152,
      "ä¹±": 4153,
      "ï¼Įä¸º": 4154,
      "Ġabove": 4155,
      "æ¥ļ": 4156,
      "ope": 4157,
      "åĶ¯": 4158,
      "è¶ĬæĿ¥è¶Ĭ": 4159,
      "omet": 4160,
      "æļ´": 4161,
      "Ġnecess": 4162,
      "è´Ŀ": 4163,
      "èį¯çī©": 4164,
      "çļĦé«ĺ": 4165,
      "for": 4166,
      "ç©ºæ°Ķ": 4167,
      "çļĦéĩįè¦ģ": 4168,
      "è¯ļ": 4169,
      "vious": 4170,
      "ither": 4171,
      "è·³": 4172,
      "Ġrece": 4173,
      "éŀ": 4174,
      "ton": 4175,
      "çļĦæĹ¶éĹ´": 4176,
      "ç»ıåİĨ": 4177,
      "åĲĽ": 4178,
      "åİŁçĲĨ": 4179,
      "Ġorig": 4180,
      "å¡Ķ": 4181,
      "ï¼Įåį³": 4182,
      "ately": 4183,
      "outh": 4184,
      "åİŁåĪĻ": 4185,
      "âĦĥ": 4186,
      "az": 4187,
      "Ġfeature": 4188,
      "æ°ĳæĹı": 4189,
      "Ġways": 4190,
      "Ġindic": 4191,
      "Ġtru": 4192,
      "èĢĥçĶŁ": 4193,
      "èĩªæĪĳ": 4194,
      "istic": 4195,
      "Ġearly": 4196,
      "éĶĻè¯¯": 4197,
      "play": 4198,
      "Ġdifficult": 4199,
      "Ġi": 4200,
      "åħħåĪĨ": 4201,
      "Ġappear": 4202,
      "Ġfrequ": 4203,
      "Ġconsider": 4204,
      "ument": 4205,
      "éĥ¨éĹ¨": 4206,
      "èĪĴ": 4207,
      "æľīæľº": 4208,
      "Ġgrowth": 4209,
      "è¯ģæĺİ": 4210,
      "CO": 4211,
      "):": 4212,
      "fficient": 4213,
      "Ġclear": 4214,
      "å¸¦æĿ¥": 4215,
      "èĥ½éĩı": 4216,
      "Ġmanagement": 4217,
      "Ġ|Ċ": 4218,
      "äº¦": 4219,
      "ä¼¦": 4220,
      "ĠStud": 4221,
      "ĠBe": 4222,
      "åĪ·": 4223,
      "Ġold": 4224,
      "éĽĦ": 4225,
      "å°¤åħ¶": 4226,
      "Ġcases": 4227,
      "ns": 4228,
      "äºĮç»´çłģ": 4229,
      "æ¬¢è¿İ": 4230,
      "åħ¬ä¼Ĺåı·": 4231,
      "æķ´ä½ĵ": 4232,
      "Ġbo": 4233,
      "Ġsomething": 4234,
      "èģĮä¸ļ": 4235,
      "Ġthink": 4236,
      "èĲ¥åħ»": 4237,
      "æĿ¥çľĭ": 4238,
      "Ġhead": 4239,
      "ç¼ĸè¾ĳ": 4240,
      "ç»ķ": 4241,
      "ä¹Łæľī": 4242,
      "ised": 4243,
      "è½´": 4244,
      "å¸¸è§ģ": 4245,
      "ones": 4246,
      "é©¾": 4247,
      "çº¤": 4248,
      "65": 4249,
      "Ġfuture": 4250,
      "Ġaddress": 4251,
      "çĽ¸åĲĮ": 4252,
      "ibility": 4253,
      "æııè¿°": 4254,
      "lished": 4255,
      "cm": 4256,
      "æĢ§åĴĮ": 4257,
      "èĢĹ": 4258,
      "Ġrespons": 4259,
      "ï¼Įä»ĸ": 4260,
      "Ġspecial": 4261,
      "è¿ĩåİ»": 4262,
      "åĵªäºĽ": 4263,
      "æİª": 4264,
      "Ġresources": 4265,
      "Ġloss": 4266,
      "ĠSp": 4267,
      "èĤ¾": 4268,
      "atch": 4269,
      "plic": 4270,
      "Ø§": 4271,
      "çĤ¼": 4272,
      "å¿ĺ": 4273,
      "åıªèĥ½": 4274,
      "å¦ĤæŃ¤": 4275,
      "Ġprofess": 4276,
      "usion": 4277,
      "ream": 4278,
      "æ¢ħ": 4279,
      "æ¨ª": 4280,
      "å¹´çº§": 4281,
      "è¿Ļä¹Ī": 4282,
      "amp": 4283,
      "åĵ²": 4284,
      "erence": 4285,
      "æĶ»": 4286,
      "ames": 4287,
      "Ġver": 4288,
      "Ġword": 4289,
      "æĪª": 4290,
      "Ġinteg": 4291,
      "Ġselect": 4292,
      "Ġquestion": 4293,
      "å¯¸": 4294,
      "Ġfactors": 4295,
      "ruction": 4296,
      "Ġmaterials": 4297,
      "roll": 4298,
      "å¹¶ä¸į": 4299,
      "åĪ¤æĸŃ": 4300,
      "aces": 4301,
      "Ġ'": 4302,
      "éī": 4303,
      ",è¯·": 4304,
      "ï¼Įè®©": 4305,
      "å±ĭ": 4306,
      "æĳ©": 4307,
      "Ġpressure": 4308,
      "ires": 4309,
      "...": 4310,
      "Ġbelow": 4311,
      "æķ°éĩı": 4312,
      "æľīä¸Ģ": 4313,
      "ä¸įè¿ĩ": 4314,
      "æ½®": 4315,
      "æ¶¨": 4316,
      "åıĬåħ¶": 4317,
      "Ġsource": 4318,
      "æľĢå¤§": 4319,
      "æĢ»ç»ĵ": 4320,
      "æ´ŀ": 4321,
      "Ġlast": 4322,
      "Ġtoget": 4323,
      "Ġobserv": 4324,
      "å¹´é¾Ħ": 4325,
      "å¢Ļ": 4326,
      "Ġtogether": 4327,
      "âĨĵ": 4328,
      "Ġsize": 4329,
      "Ġgeneral": 4330,
      "EN": 4331,
      "obal": 4332,
      "ï¼ĽĊ": 4333,
      "å¼ĥ": 4334,
      "Ġsubject": 4335,
      "æĦŁæŁĵ": 4336,
      "ored": 4337,
      "åįķåħĥ": 4338,
      "Ġarticle": 4339,
      "Ġart": 4340,
      "Ġx": 4341,
      "Ġsoil": 4342,
      "||": 4343,
      "æħ§": 4344,
      "alk": 4345,
      "è¯º": 4346,
      "Ġstudent": 4347,
      "çİ°åľº": 4348,
      "çĪ¸": 4349,
      "çªĹ": 4350,
      "åħįè´¹": 4351,
      "å°Ĭ": 4352,
      "Ġsingle": 4353,
      "ule": 4354,
      "æī¾åĪ°": 4355,
      "çĶĺ": 4356,
      "è¿·": 4357,
      "éĤ®": 4358,
      "å§Ĳ": 4359,
      "Ġsoft": 4360,
      "ler": 4361,
      ",è¦ģ": 4362,
      "ina": 4363,
      "æ¬²": 4364,
      "Ġplants": 4365,
      "å®ļä¹ī": 4366,
      "Ġprovides": 4367,
      "Ġlaw": 4368,
      "Â°": 4369,
      "æ£®": 4370,
      "æķĻæĿĲ": 4371,
      "æĪĲäºĨ": 4372,
      "ĠEar": 4373,
      "Ġlikely": 4374,
      "As": 4375,
      "å¢ŀéķ¿": 4376,
      "Ġturn": 4377,
      "å®ŀæĸ½": 4378,
      "åı¦å¤ĸ": 4379,
      "ÂłÂłÂłÂł": 4380,
      "čĊ": 4381,
      "48": 4382,
      "èĦ¸": 4383,
      "èħĲ": 4384,
      "æŃ£åľ¨": 4385,
      "æī¬": 4386,
      "Ġalways": 4387,
      "è§ĦåĪĴ": 4388,
      "çģ°": 4389,
      "éī´": 4390,
      "AP": 4391,
      "Ġmicro": 4392,
      "ustom": 4393,
      "Ġpatients": 4394,
      "æĺ¯ä»Ģä¹Ī": 4395,
      "Ġevalu": 4396,
      "å¤®": 4397,
      "Ġgive": 4398,
      "inking": 4399,
      "ume": 4400,
      "37": 4401,
      "åĹ": 4402,
      ",æ¯ı": 4403,
      "çİ°å®ŀ": 4404,
      "èĸĦ": 4405,
      "ä¸¹": 4406,
      "aps": 4407,
      "é£İæł¼": 4408,
      "æıĲåĩº": 4409,
      "è¶ĭ": 4410,
      "åĮ»çĸĹ": 4411,
      "æĥ³è¦ģ": 4412,
      "å¤ļæķ°": 4413,
      "ours": 4414,
      "çģŃ": 4415,
      "Ġgover": 4416,
      "æľĹ": 4417,
      "Ġbusiness": 4418,
      "ample": 4419,
      "æķĪçİĩ": 4420,
      "Ġstrong": 4421,
      "Ġsay": 4422,
      "çĬ¯": 4423,
      "Ġrequired": 4424,
      "Ġmechan": 4425,
      "yl": 4426,
      "Ġrelationship": 4427,
      "åŃĲçļĦ": 4428,
      "ems": 4429,
      "åħįçĸ«": 4430,
      "æŀĿ": 4431,
      "aster": 4432,
      "æĥł": 4433,
      ",å°Ĩ": 4434,
      "ç¥ĸ": 4435,
      "é£Łåĵģ": 4436,
      "æŃ¤å¤ĸ": 4437,
      "è¿¹": 4438,
      "å±ķç¤º": 4439,
      "èķ": 4440,
      "Ġrepresent": 4441,
      "ips": 4442,
      "çī¹æ®Ĭ": 4443,
      "äº¤æĺĵ": 4444,
      "Ġdetail": 4445,
      "To": 4446,
      "Ġparent": 4447,
      "æľ¬æĸĩ": 4448,
      "åķĨä¸ļ": 4449,
      "Ġfurther": 4450,
      "ä¸Ģå®ļè¦ģ": 4451,
      "éĢ»": 4452,
      "ä¿Ĺ": 4453,
      "åħ¨éĿ¢": 4454,
      "éº¦": 4455,
      "çļĦåıĳå±ķ": 4456,
      "ä¸ĵå®¶": 4457,
      "ths": 4458,
      "æľºåĻ¨": 4459,
      "though": 4460,
      ",å¥¹": 4461,
      "çĲ´": 4462,
      "Ġskin": 4463,
      "iting": 4464,
      "lection": 4465,
      "leep": 4466,
      "ah": 4467,
      "åı¯èĥ½ä¼ļ": 4468,
      "å¤ļç§į": 4469,
      "åıĹåĪ°": 4470,
      "æ¶Ĥ": 4471,
      "ä¸¤ç§į": 4472,
      "Ġill": 4473,
      "å¾Ģå¾Ģ": 4474,
      "çľŁå®ŀ": 4475,
      "æ»¤": 4476,
      "Ġcontrib": 4477,
      "39": 4478,
      "Ġtrad": 4479,
      "Ġwriting": 4480,
      "åºĦ": 4481,
      "88": 4482,
      "Ġleast": 4483,
      "Ġidentify": 4484,
      "èµĦæł¼": 4485,
      "æģ©": 4486,
      "Ġacross": 4487,
      "Ġintrodu": 4488,
      ".g": 4489,
      "ç£¨": 4490,
      "åĩ½æķ°": 4491,
      "Ġcancer": 4492,
      "èĿ": 4493,
      "ãĢģãĢĬ": 4494,
      "çĶŁæĪĲ": 4495,
      ",âĢĿ": 4496,
      "Ġtry": 4497,
      "æİ¢ç´¢": 4498,
      "Ġteam": 4499,
      "èĤ¯": 4500,
      "ç¦ģ": 4501,
      "åĸ·": 4502,
      "Ġdeveloped": 4503,
      "utes": 4504,
      "Ġfour": 4505,
      "let": 4506,
      "izing": 4507,
      "idd": 4508,
      "Ch": 4509,
      "èĩªèº«": 4510,
      "æ²¿": 4511,
      "åĨĻä½ľ": 4512,
      "AN": 4513,
      "ä¹ĺ": 4514,
      "è¹": 4515,
      "osis": 4516,
      "è¿Ŀ": 4517,
      "è¯Ńæĸĩ": 4518,
      "çĽ¸äºĴ": 4519,
      "igure": 4520,
      "æĺİç¡®": 4521,
      "åĮħåĲ«": 4522,
      "åĪĬ": 4523,
      "Ġsimple": 4524,
      "Ġcompon": 4525,
      "å®īæİĴ": 4526,
      "earch": 4527,
      "æĲľ": 4528,
      "æĥħç»ª": 4529,
      "èª": 4530,
      "Ġrate": 4531,
      "é£Łçī©": 4532,
      "85": 4533,
      "ably": 4534,
      "ĠNew": 4535,
      "Ġinit": 4536,
      "è®¯": 4537,
      "ooks": 4538,
      ",åħ¶": 4539,
      "sy": 4540,
      "apt": 4541,
      "æŁĶ": 4542,
      "Ġside": 4543,
      "ãĢĤåĽłæŃ¤": 4544,
      "ãĤ": 4545,
      "Ġwind": 4546,
      "åĪ«äºº": 4547,
      "æĿĨ": 4548,
      "Ġunt": 4549,
      "Ġetc": 4550,
      "å®īè£ħ": 4551,
      "Ġabs": 4552,
      "å¹³åĿĩ": 4553,
      "æ©": 4554,
      "å±ı": 4555,
      "Ġamong": 4556,
      "æ¡£": 4557,
      "to": 4558,
      "éĶħ": 4559,
      "eral": 4560,
      "Ġability": 4561,
      "Ġrelated": 4562,
      "orn": 4563,
      "Ġbir": 4564,
      "af": 4565,
      "Ġpath": 4566,
      "åĲ´": 4567,
      "è´Ńä¹°": 4568,
      "è¯¸": 4569,
      "çıł": 4570,
      "ief": 4571,
      "ï¼Įå°Ĩ": 4572,
      "æĬĢèĥ½": 4573,
      "Ġscience": 4574,
      "be": 4575,
      "ray": 4576,
      "åĩĨç¡®": 4577,
      "çļĦçłĶç©¶": 4578,
      "æİ¥è§¦": 4579,
      "å¢ŀå¼º": 4580,
      "Ġself": 4581,
      "æŁ±": 4582,
      "è§Ĵåº¦": 4583,
      "äººå·¥": 4584,
      "çıį": 4585,
      "ug": 4586,
      "Ġrecord": 4587,
      "rag": 4588,
      "Ġreduce": 4589,
      "Ġproduction": 4590,
      "Ġput": 4591,
      "éĽķ": 4592,
      "Ġanaly": 4593,
      "amm": 4594,
      "OS": 4595,
      "æ¢ģ": 4596,
      "Ġfamily": 4597,
      "42": 4598,
      "èĴ¸": 4599,
      "98": 4600,
      "ĠâĢĶ": 4601,
      "Ġgovern": 4602,
      "Ġsound": 4603,
      "éĿ¢è¯ķ": 4604,
      "éĢ»è¾ĳ": 4605,
      "Ġresearc": 4606,
      "ï¼Įä½ł": 4607,
      "åĨħéĥ¨": 4608,
      "Ġassociated": 4609,
      "51": 4610,
      "é¡¿": 4611,
      "Ġissues": 4612,
      "åĬĽéĩı": 4613,
      "åĲĪçĲĨ": 4614,
      "Ġ:": 4615,
      "ä»¥åĲİ": 4616,
      "Ġemploy": 4617,
      "ĠIm": 4618,
      "Ġessential": 4619,
      "IC": 4620,
      "ring": 4621,
      "Ġlower": 4622,
      "ĠInst": 4623,
      "Ġbegin": 4624,
      "ä»¿": 4625,
      "ising": 4626,
      "å¤ļçļĦ": 4627,
      "åĬ¨åĬĽ": 4628,
      "è¾ĵåħ¥": 4629,
      "Ġpractice": 4630,
      "ON": 4631,
      "Ġbro": 4632,
      "Ġmakes": 4633,
      "ä½įäºİ": 4634,
      "è®¡ç®Ĺæľº": 4635,
      "Ġpattern": 4636,
      "ired": 4637,
      "ask": 4638,
      "Ġexperim": 4639,
      "ï¼ĮâĢľ": 4640,
      "åĩ¡": 4641,
      "Ġreview": 4642,
      "ush": 4643,
      "Ġcr": 4644,
      "äººä½ĵ": 4645,
      "Ġcome": 4646,
      "Ġbehavior": 4647,
      "anced": 4648,
      "An": 4649,
      "åĮ»åŃ¦": 4650,
      "Ġinflu": 4651,
      "%,": 4652,
      "èĥ¸": 4653,
      "å¦Īå¦Ī": 4654,
      "é²ģ": 4655,
      "æ®ĸ": 4656,
      "aves": 4657,
      "ĠWith": 4658,
      "åħ¼": 4659,
      "é¢Ĩå¯¼": 4660,
      "åĬ¨ä½ľ": 4661,
      "ctions": 4662,
      "Ġsince": 4663,
      "ctor": 4664,
      "èĥĮæĻ¯": 4665,
      "ä¸įåĪ°": 4666,
      "éľĩ": 4667,
      "Ġmass": 4668,
      "Ġmar": 4669,
      "æģĴ": 4670,
      "ãĢĳĊ": 4671,
      "è¦": 4672,
      "çĶµæ±ł": 4673,
      "èĪ¹": 4674,
      ",å®ĥ": 4675,
      "pecially": 4676,
      "æľīäºĽ": 4677,
      "åħ¨éĥ¨": 4678,
      "äºĨä¸Ģä¸ª": 4679,
      "éĵľ": 4680,
      "Ġlocal": 4681,
      "æĦıæĢĿ": 4682,
      "èħ¿": 4683,
      "å®ļçļĦ": 4684,
      "ï¼ĮåĽłä¸º": 4685,
      "æ®ĭ": 4686,
      "æ³°": 4687,
      "å¿«ä¹Ĳ": 4688,
      "Ġwee": 4689,
      ";ĊĊ": 4690,
      "æīĵå¼Ģ": 4691,
      "nces": 4692,
      "ä¸ĭéĿ¢": 4693,
      "çŃīçŃī": 4694,
      "å°Ŀ": 4695,
      "æ¡Ĩ": 4696,
      "aring": 4697,
      "ç¡«": 4698,
      "For": 4699,
      "èĢħçļĦ": 4700,
      "arget": 4701,
      "åıĸå¾Ĺ": 4702,
      "å¦Ĥä¸ĭ": 4703,
      "å·¥èµĦ": 4704,
      "Ġprote": 4705,
      "ED": 4706,
      "ç½ª": 4707,
      "è®¨è®º": 4708,
      "ãĢĤä»ĸ": 4709,
      "ĠCont": 4710,
      "å¹¸ç¦ı": 4711,
      "ĠIs": 4712,
      "ç»ıåħ¸": 4713,
      "ĠOn": 4714,
      "ĠDo": 4715,
      "ä¼¯": 4716,
      "ĠCol": 4717,
      "åıĤæķ°": 4718,
      "çĦĬ": 4719,
      ")ãĢĤ": 4720,
      "isc": 4721,
      "çĵ¶": 4722,
      "è¡¨æĺİ": 4723,
      "ä¼Ł": 4724,
      "è¿Ļæĺ¯": 4725,
      "è§ĤçĤ¹": 4726,
      "åĩī": 4727,
      ",çĶ¨": 4728,
      "æľºæ¢°": 4729,
      "å¦Ļ": 4730,
      "èİ«": 4731,
      "åĪĨç±»": 4732,
      "ä¼¸": 4733,
      "æ·±åħ¥": 4734,
      "Ġleg": 4735,
      "æľ¬èº«": 4736,
      "ript": 4737,
      "ĠEnglish": 4738,
      "ä¸įå¾Ĺ": 4739,
      "Ġagainst": 4740,
      "åªĴä½ĵ": 4741,
      "ä¹Łä¼ļ": 4742,
      "ĠCan": 4743,
      "rans": 4744,
      "çļĩ": 4745,
      "å²©": 4746,
      "å¤§éĩı": 4747,
      ",åĨį": 4748,
      "edi": 4749,
      "è´¥": 4750,
      "æĶ¹åĸĦ": 4751,
      "åĬĽçļĦ": 4752,
      "è®°å¿Ĩ": 4753,
      "ç±į": 4754,
      ",æĽ´": 4755,
      "æĬĵ": 4756,
      "è¾Ľ": 4757,
      "ï¼Įè¿ĺ": 4758,
      "Ġstat": 4759,
      "è¾Ĩ": 4760,
      "éħ¶": 4761,
      "æĿ¯": 4762,
      "Ġcondition": 4763,
      "Ġdem": 4764,
      "Ġsoci": 4765,
      "åĲ¸æĶ¶": 4766,
      "ä¸Ńåįİ": 4767,
      "ä¼łæĴŃ": 4768,
      "å®Įæķ´": 4769,
      "æ±¡æŁĵ": 4770,
      "è§Ħå¾ĭ": 4771,
      "åģ¶": 4772,
      "éĢĲæ¸Ĳ": 4773,
      "èħº": 4774,
      "Ġdoc": 4775,
      "æ¬£": 4776,
      "çļĦæĸ¹å¼ı": 4777,
      "ĠOr": 4778,
      "åĨħçļĦ": 4779,
      "éĻ¶": 4780,
      "çĮª": 4781,
      "Ġsure": 4782,
      "Ġreading": 4783,
      "Ġox": 4784,
      "Ġpast": 4785,
      "Ġaddition": 4786,
      "ĠAt": 4787,
      "ä¼Ļ": 4788,
      "å¹ķ": 4789,
      "Ġreason": 4790,
      "è§ĦèĮĥ": 4791,
      "åħµ": 4792,
      "There": 4793,
      "-based": 4794,
      "ä¼ĺåĬ¿": 4795,
      "ï¼Įå¦Ĥæŀľ": 4796,
      "Ġmov": 4797,
      "Ġcolor": 4798,
      "çĹĩçĬ¶": 4799,
      "Ġlog": 4800,
      "é¢ľèī²": 4801,
      "åĬłå¼º": 4802,
      "ales": 4803,
      "ively": 4804,
      "ï¼īãĢĤ": 4805,
      "å®¿": 4806,
      "emic": 4807,
      "Ġdom": 4808,
      "66": 4809,
      "Ġcoll": 4810,
      "æ§": 4811,
      "Ġsum": 4812,
      "Ġcomputer": 4813,
      "ET": 4814,
      "äºĭä»¶": 4815,
      "AI": 4816,
      "ĠAll": 4817,
      "éĨĩ": 4818,
      "Ġwhether": 4819,
      "oot": 4820,
      "Ġneg": 4821,
      "æľºåĪ¶": 4822,
      "åŃĻ": 4823,
      "man": 4824,
      "é©±": 4825,
      "Ġsubst": 4826,
      "Ġalong": 4827,
      "è¯ķéªĮ": 4828,
      "æĥħæĦŁ": 4829,
      "çĶµæµģ": 4830,
      "Ġdeg": 4831,
      "ç¡®ä¿Ŀ": 4832,
      "ç©´": 4833,
      "Ġmaintain": 4834,
      "istics": 4835,
      "åĲįç§°": 4836,
      "åĳĬè¯ī": 4837,
      "Ġrecomm": 4838,
      "éĵ¶è¡Į": 4839,
      "Ġgre": 4840,
      "Ġsitu": 4841,
      "Ġtheory": 4842,
      "å¦ĩ": 4843,
      "è§Ħæ¨¡": 4844,
      "çļĦä¸»è¦ģ": 4845,
      "äºĭä¸ļ": 4846,
      "]Ċ": 4847,
      "rad": 4848,
      "omes": 4849,
      "èģĬ": 4850,
      ".âĢĿĊ": 4851,
      "verage": 4852,
      "é©¶": 4853,
      "å¹´ä»£": 4854,
      "èĥĨ": 4855,
      "52": 4856,
      "å¾ªçİ¯": 4857,
      "Ġworking": 4858,
      "Ġexperien": 4859,
      ",ä½¿": 4860,
      "ãĢĤ(": 4861,
      "äººæīį": 4862,
      "éĺµ": 4863,
      "ãĢĭãĢĬ": 4864,
      "åı¦ä¸Ģ": 4865,
      "ĠSome": 4866,
      "åĢ¾": 4867,
      "Ġchemical": 4868,
      "Ġgroups": 4869,
      "aken": 4870,
      "è¾ĵåĩº": 4871,
      "Ġweight": 4872,
      "Ġliter": 4873,
      "å¸Ń": 4874,
      "Ġcarbon": 4875,
      "Ġenough": 4876,
      "Ġfull": 4877,
      "ties": 4878,
      "è´¦": 4879,
      "ä¹Į": 4880,
      "æĤī": 4881,
      "å®Ļ": 4882,
      "ç»ĵæĿŁ": 4883,
      "æĹ¥å¸¸": 4884,
      "çĽ¸ä¿¡": 4885,
      "Ġlittle": 4886,
      "åģļå¥½": 4887,
      "Ġengine": 4888,
      "Ġhaving": 4889,
      "ences": 4890,
      "Ġparticip": 4891,
      "æľĢé«ĺ": 4892,
      "Ġimplement": 4893,
      "Ġgas": 4894,
      "ç§Ł": 4895,
      "onse": 4896,
      "Ġquant": 4897,
      "è¿Ķ": 4898,
      "å°ĸ": 4899,
      "Ġnext": 4900,
      "amet": 4901,
      "æ¶īåıĬ": 4902,
      "ä¸ºä¸»": 4903,
      "Ġmill": 4904,
      "åįģåĪĨ": 4905,
      "Ġkind": 4906,
      "ç¬¬åĽĽ": 4907,
      "æŀĦæĪĲ": 4908,
      "une": 4909,
      "ery": 4910,
      "åį«çĶŁ": 4911,
      "41": 4912,
      "çļĦä½ľçĶ¨": 4913,
      "è·¨": 4914,
      "Ġnut": 4915,
      "å¼ķå¯¼": 4916,
      "éĿ¢å¯¹": 4917,
      "Ġclimate": 4918,
      "ç²ĺ": 4919,
      "åıĺå¾Ĺ": 4920,
      "ä¸ĭéĻį": 4921,
      "ĠMan": 4922,
      "Ġnear": 4923,
      "è¿ħ": 4924,
      "Ġeither": 4925,
      "æİªæĸ½": 4926,
      "æĭ¼": 4927,
      "åŃ©åŃĲçļĦ": 4928,
      "pose": 4929,
      "97": 4930,
      "Al": 4931,
      "ï¼ĮåĽłæŃ¤": 4932,
      "æ°¨": 4933,
      "çļ®èĤ¤": 4934,
      "ĠĠĠĠĠĠĠĠ": 4935,
      "æĤ¨çļĦ": 4936,
      "Ġmedical": 4937,
      "çĿ£": 4938,
      "Ġstress": 4939,
      "Ġensure": 4940,
      "Ġmach": 4941,
      "æľ±": 4942,
      "äºĮåįģ": 4943,
      "çŃĸçķ¥": 4944,
      "è§ĦåĪĻ": 4945,
      "ĠAmerican": 4946,
      "ãĢĤæĪĳä»¬": 4947,
      "èĬ¯": 4948,
      "Ġrecogn": 4949,
      "çļĦåŁºç¡Ģ": 4950,
      "çĶľ": 4951,
      "ï¼Įä»İèĢĮ": 4952,
      "ules": 4953,
      "åŃ¦æľ¯": 4954,
      "æľīäºº": 4955,
      "èĥİ": 4956,
      "æĶ¶åħ¥": 4957,
      "ections": 4958,
      "rapy": 4959,
      "èĭ±åĽ½": 4960,
      "Ġwide": 4961,
      "Ġfail": 4962,
      "Ġaway": 4963,
      "åºĶçļĦ": 4964,
      "oose": 4965,
      "opy": 4966,
      "lying": 4967,
      "å¾Ĳ": 4968,
      "64": 4969,
      "ä½ľä¸ļ": 4970,
      "å§Ķåĳĺ": 4971,
      "ç»ĦåĲĪ": 4972,
      "Ġheat": 4973,
      "å§ĵ": 4974,
      ",åį³": 4975,
      "æĮĤ": 4976,
      "ç»Łä¸Ģ": 4977,
      "å®ĩå®Ļ": 4978,
      "èĥ½æºĲ": 4979,
      "æī°": 4980,
      "Ġdistrib": 4981,
      "äººçī©": 4982,
      "è¡°": 4983,
      "Ġcauses": 4984,
      "Ġimage": 4985,
      "ç¤¾åĮº": 4986,
      "use": 4987,
      "Ġfeed": 4988,
      "å½¢è±¡": 4989,
      "éª¤": 4990,
      "Ġleft": 4991,
      "åľ¨äºİ": 4992,
      "æĪĲåĪĨ": 4993,
      "æ°Ķä½ĵ": 4994,
      "ĠBy": 4995,
      "Ġuser": 4996,
      "æ´¥": 4997,
      "Ġespecially": 4998,
      "()": 4999,
      "æ¯Ķä¾ĭ": 5000,
      "å¹³è¡¡": 5001,
      "æ´Ľ": 5002,
      "Ġge": 5003,
      "56": 5004,
      "ç»Łè®¡": 5005,
      "æĺ¯æĮĩ": 5006,
      "oph": 5007,
      "Ġevidence": 5008,
      "çĮ«": 5009,
      "Ġincreased": 5010,
      "53": 5011,
      "Ġåľ¨": 5012,
      "ç«¹": 5013,
      "èİ·åıĸ": 5014,
      "pro": 5015,
      "Ġsent": 5016,
      "âĳł": 5017,
      "åĳ¼åĲ¸": 5018,
      "ĠWor": 5019,
      "ĠApp": 5020,
      "æĬĢå·§": 5021,
      "Ġproducts": 5022,
      "åįļå£«": 5023,
      "96": 5024,
      "çļĦæĸ°": 5025,
      "ä½ĵçİ°": 5026,
      "éĩįæĸ°": 5027,
      "æ¹¾": 5028,
      "æ³½": 5029,
      ",çĦ¶åĲİ": 5030,
      "ï½ŀ": 5031,
      "å¼Ł": 5032,
      "Ġconsum": 5033,
      "-w": 5034,
      "éĻ·": 5035,
      "Ġnecessary": 5036,
      "Ġprocesses": 5037,
      "æ´»æĢ§": 5038,
      "åĭĩ": 5039,
      "ronic": 5040,
      "å¿ħè¦ģ": 5041,
      "When": 5042,
      "åĪĢ": 5043,
      "å¥ĭ": 5044,
      "âĢĻre": 5045,
      "Ġcustom": 5046,
      "ĠBl": 5047,
      "Ġexerc": 5048,
      "å¯¿": 5049,
      "å°±åı¯ä»¥": 5050,
      "ç¾Ĭ": 5051,
      "CT": 5052,
      "Ġcannot": 5053,
      "rams": 5054,
      "æ³ī": 5055,
      "ï¼Įä½Ĩæĺ¯": 5056,
      "Ġyoung": 5057,
      "................................": 5058,
      "43": 5059,
      "PS": 5060,
      "Ġavoid": 5061,
      "ï¼ĮçĶ¨": 5062,
      "åħ¬åħ±": 5063,
      "Ġmarket": 5064,
      "åıĳæĮ¥": 5065,
      "Ġ*": 5066,
      "èģĶåĲĪ": 5067,
      "ä¹ı": 5068,
      "acy": 5069,
      "Ġprob": 5070,
      "æ»´": 5071,
      "çº·": 5072,
      "ï¼ĮçĦ¶åĲİ": 5073,
      "Ġcommunity": 5074,
      "Ġhyd": 5075,
      "ä½Ĩæĺ¯": 5076,
      "Ġmagn": 5077,
      "åĵ²åŃ¦": 5078,
      "æĹ¦": 5079,
      ",èĢĮä¸Ķ": 5080,
      "Ġask": 5081,
      "Ġcollect": 5082,
      "ĠUs": 5083,
      "Ġwrite": 5084,
      "ç»ĺçĶ»": 5085,
      "Ġmultiple": 5086,
      "çļĦä¸Ģä¸ª": 5087,
      "epend": 5088,
      "AM": 5089,
      "çĳŀ": 5090,
      "ember": 5091,
      "æĬ±": 5092,
      "ç«ŀäºī": 5093,
      "å·®å¼Ĥ": 5094,
      "âĪ": 5095,
      "Ġdays": 5096,
      "AD": 5097,
      ",å°±æĺ¯": 5098,
      "You": 5099,
      "åĲİæĿ¥": 5100,
      "ç¥Ŀ": 5101,
      "Ġtoward": 5102,
      "Ġindividuals": 5103,
      "ãĢĤæīĢä»¥": 5104,
      "æ¡ĥ": 5105,
      "Ġfat": 5106,
      "åĬ³åĬ¨": 5107,
      "çĶµåİĭ": 5108,
      "ĠEarth": 5109,
      "light": 5110,
      "Ġconduct": 5111,
      "å¤ļä¸ª": 5112,
      "thing": 5113,
      "IT": 5114,
      "Ġuntil": 5115,
      "Ġnormal": 5116,
      "Ġmind": 5117,
      "åĨľä¸ļ": 5118,
      "ises": 5119,
      "åľ°çĤ¹": 5120,
      "âĢį": 5121,
      "ĠØ": 5122,
      "åĻ¨çļĦ": 5123,
      "ä¸įè¶³": 5124,
      "åŃ©åŃĲä»¬": 5125,
      "Ġallows": 5126,
      "Ġconcer": 5127,
      "çĭĹ": 5128,
      "ä¸Ģå®ļçļĦ": 5129,
      "val": 5130,
      "Ġneeded": 5131,
      "Ġparts": 5132,
      "68": 5133,
      "elling": 5134,
      "44": 5135,
      "âĳ¡": 5136,
      "Ġmodels": 5137,
      "Ġopportun": 5138,
      "lt": 5139,
      "åĢº": 5140,
      "Ġterms": 5141,
      "æķ¢": 5142,
      "OR": 5143,
      "ä¼Ĭ": 5144,
      "orts": 5145,
      "pri": 5146,
      "æķ¬": 5147,
      "Ġnature": 5148,
      "itud": 5149,
      "åīª": 5150,
      "ands": 5151,
      "æ¼ı": 5152,
      "iques": 5153,
      "Ġpopulation": 5154,
      "Ġappl": 5155,
      "urope": 5156,
      "Ġtarget": 5157,
      "Ġcho": 5158,
      "èī¯å¥½çļĦ": 5159,
      "æĹ¶çļĦ": 5160,
      "ibr": 5161,
      "å£¤": 5162,
      "æľ¬ä¹¦": 5163,
      "Ġauthor": 5164,
      "Ġfund": 5165,
      "86": 5166,
      ",å½ĵ": 5167,
      "æĸ¹ä¾¿": 5168,
      "æµģç¨ĭ": 5169,
      "ãĢĭï¼Į": 5170,
      "è¦Ĩ": 5171,
      "by": 5172,
      "Ġtools": 5173,
      "çĸ«æĥħ": 5174,
      "ening": 5175,
      "Ġconsidered": 5176,
      "Ġtraining": 5177,
      "Ġhelps": 5178,
      "Ġshown": 5179,
      "Ġpersonal": 5180,
      "imum": 5181,
      "Ġdru": 5182,
      "reng": 5183,
      "åĩłä¹İ": 5184,
      "åĲĮæł·": 5185,
      "ĠMed": 5186,
      "Ġquick": 5187,
      "çº¤ç»´": 5188,
      "EM": 5189,
      "Ġpolic": 5190,
      "amin": 5191,
      "åĭ¤": 5192,
      "çĶµè·¯": 5193,
      "Ġwar": 5194,
      "ä¼ļæľī": 5195,
      "ä»ģ": 5196,
      "Ġsleep": 5197,
      "Ġproduce": 5198,
      "çİ»": 5199,
      "åıĳè¡¨": 5200,
      "ults": 5201,
      "Ġcontext": 5202,
      "åĲ«éĩı": 5203,
      "Ġprotect": 5204,
      "Ġdamage": 5205,
      "sequ": 5206,
      "fact": 5207,
      "ç¡ķ": 5208,
      "Ġcorrect": 5209,
      "ä½łä»¬": 5210,
      "verse": 5211,
      "Ġresearchers": 5212,
      "èħ°": 5213,
      "è²": 5214,
      "oney": 5215,
      "æĪ´": 5216,
      "Ġvalues": 5217,
      "Ġhowever": 5218,
      "acc": 5219,
      "çļĦåľ°æĸ¹": 5220,
      "ott": 5221,
      "ä¸Ģä¸ªäºº": 5222,
      "58": 5223,
      "Ġinteract": 5224,
      "ites": 5225,
      "çĽ¸å½ĵ": 5226,
      ",éĥ½": 5227,
      "ground": 5228,
      "éĢĤåºĶ": 5229,
      "Ġ)": 5230,
      "Ġcheck": 5231,
      "Ġmedic": 5232,
      "Ġchalleng": 5233,
      "åĬłå·¥": 5234,
      "èµµ": 5235,
      "lex": 5236,
      "ç§Ĵ": 5237,
      "ows": 5238,
      "è¡ĮåĬ¨": 5239,
      "çĶŁçļĦ": 5240,
      "éĻĲåĪ¶": 5241,
      "é¢Ħæµĭ": 5242,
      "éĩĳèŀį": 5243,
      "æīĢè°ĵ": 5244,
      "room": 5245,
      "Ġapplication": 5246,
      "sych": 5247,
      "side": 5248,
      "Ġclose": 5249,
      "Ġvers": 5250,
      "èĦ¾": 5251,
      "æĭĵ": 5252,
      "èħĶ": 5253,
      ".S": 5254,
      "Ġfram": 5255,
      "çľł": 5256,
      "ãĢĤå½ĵ": 5257,
      "Ġnetwork": 5258,
      "ï¼ĮåĪĻ": 5259,
      "Ġstandard": 5260,
      "Ġphot": 5261,
      "Ġmil": 5262,
      "Ġtot": 5263,
      "ĠCO": 5264,
      "Ġred": 5265,
      "Ġdone": 5266,
      "èĤ¿çĺ¤": 5267,
      "ĠOne": 5268,
      "æĿ°": 5269,
      "æĸĩæĺİ": 5270,
      "è¯Ħä¼°": 5271,
      "è°ĥèĬĤ": 5272,
      ",åıĪ": 5273,
      "åĢ¼å¾Ĺ": 5274,
      "âĸ¼": 5275,
      "aches": 5276,
      "Ġsepar": 5277,
      "å£°éŁ³": 5278,
      "Ġprinc": 5279,
      "Ġcontact": 5280,
      "ror": 5281,
      "çĸı": 5282,
      "æ¯ıä¸Ģ": 5283,
      ",ä»ĸä»¬": 5284,
      "ĠUS": 5285,
      "49": 5286,
      "72": 5287,
      "æĢ»æĺ¯": 5288,
      "________": 5289,
      "éĢĨ": 5290,
      "bo": 5291,
      "61": 5292,
      "å¹´è½»": 5293,
      "Ġbacter": 5294,
      "Ġincludes": 5295,
      "èĪį": 5296,
      "åħħæ»¡": 5297,
      "Ġestab": 5298,
      "ores": 5299,
      "çĽ¸æ¯Ķ": 5300,
      "ä¸ŃåĮ»": 5301,
      "å²¸": 5302,
      "Ġground": 5303,
      "Ġarg": 5304,
      "æµħ": 5305,
      "è¾¨": 5306,
      "ç²Ĺ": 5307,
      "Ġanimals": 5308,
      "Ġfar": 5309,
      "è¡Ģç®¡": 5310,
      "éĹ²": 5311,
      "ï¼Įå¤§": 5312,
      "æĹħæ¸¸": 5313,
      "é«ĺèĢĥ": 5314,
      "å¥³æĢ§": 5315,
      "æĪĲæŀľ": 5316,
      "ä¿Ŀéļľ": 5317,
      "yle": 5318,
      "Ġdiagn": 5319,
      "çĵľ": 5320,
      "åĤ¬": 5321,
      "62": 5322,
      "91": 5323,
      "46": 5324,
      "æĽ´å¥½": 5325,
      "cies": 5326,
      "é¼ł": 5327,
      "åĽ¾åĥı": 5328,
      "è¿ģ": 5329,
      "ival": 5330,
      "Ġtoday": 5331,
      "è°ĥæŁ¥": 5332,
      "åįıä¼ļ": 5333,
      "å¼ĢæĶ¾": 5334,
      "AL": 5335,
      "çĭ¬çī¹": 5336,
      "Ġhim": 5337,
      "Ġdetermine": 5338,
      "åĳĪçİ°": 5339,
      "ä¸Ńå¤®": 5340,
      "å¤įä¹ł": 5341,
      "87": 5342,
      "Ġglobal": 5343,
      "éŁµ": 5344,
      "ä¸»åĬ¨": 5345,
      "lease": 5346,
      "æ²ŁéĢļ": 5347,
      "iency": 5348,
      "Ġexplain": 5349,
      "åĵ¦": 5350,
      "éĽĨåĽ¢": 5351,
      "èī²å½©": 5352,
      "éĽĨä¸Ń": 5353,
      "æģ¢": 5354,
      "Ġpositive": 5355,
      "æŃ¥éª¤": 5356,
      "-re": 5357,
      "Ġpatient": 5358,
      "selves": 5359,
      "ï¼Įè¦ģ": 5360,
      "å°ĺ": 5361,
      "æ··åĲĪ": 5362,
      "æĮĩæłĩ": 5363,
      "è¿ŀç»Ń": 5364,
      "å°ıçļĦ": 5365,
      "Ġur": 5366,
      "htt": 5367,
      "term": 5368,
      "åĮĢ": 5369,
      "Ġuses": 5370,
      "Ġmeaning": 5371,
      "Ġlink": 5372,
      "Ġrather": 5373,
      ".âĢĿ": 5374,
      "ĠInt": 5375,
      "åĪł": 5376,
      "ĠYour": 5377,
      "92": 5378,
      "Ġincreasing": 5379,
      "çĥ¯": 5380,
      "ä¼ļè®®": 5381,
      "æ¶µ": 5382,
      "atter": 5383,
      "æĳĨ": 5384,
      "vant": 5385,
      "istance": 5386,
      "éķ¿æĮī": 5387,
      "ĠAss": 5388,
      "ipp": 5389,
      "èµĭ": 5390,
      "æģĲ": 5391,
      "ooking": 5392,
      "aim": 5393,
      "èĳĹåĲį": 5394,
      "ç®Ĺæ³ķ": 5395,
      "**Ċ": 5396,
      "ä¸»ä»»": 5397,
      "å¤Ħäºİ": 5398,
      "è£ħç½®": 5399,
      "æĶ¾åľ¨": 5400,
      "ç¾İçļĦ": 5401,
      "ç¢İ": 5402,
      "èĢĮè¨Ģ": 5403,
      "æ°¯": 5404,
      "Ġresponse": 5405,
      "Ġcountries": 5406,
      "Ġï¼Į": 5407,
      "IP": 5408,
      "Ġsuper": 5409,
      "å®¶çļĦ": 5410,
      "åŃ¦åİĨ": 5411,
      "ç§»åĬ¨": 5412,
      "inary": 5413,
      "æİ¨åĬ¨": 5414,
      "ĠCent": 5415,
      "57": 5416,
      "èĻİ": 5417,
      "Ġposition": 5418,
      "é«ĺä¸Ń": 5419,
      "ĠDes": 5420,
      "urity": 5421,
      "çļĦåŁºæľ¬": 5422,
      "Ġmen": 5423,
      "ç¢±": 5424,
      "ç¨Ģ": 5425,
      "Ġelements": 5426,
      "äºİæĺ¯": 5427,
      "æĻºæħ§": 5428,
      "åĽ°éļ¾": 5429,
      "ç±»ä¼¼": 5430,
      "63": 5431,
      "è¿½æ±Ĥ": 5432,
      "Ġnumbers": 5433,
      "çī¹èī²": 5434,
      "Ġsense": 5435,
      "ä¹Łåı¯ä»¥": 5436,
      "æĮĳæĪĺ": 5437,
      "Ġmole": 5438,
      "æĬĳåĪ¶": 5439,
      "å¼ºåº¦": 5440,
      "ä»Ĭå¹´": 5441,
      "Ġlot": 5442,
      "ynam": 5443,
      "Ġcontinu": 5444,
      "çķħ": 5445,
      "å¿½": 5446,
      "âĨĴ": 5447,
      "è´¯": 5448,
      "çĸ¼": 5449,
      "Ġtiss": 5450,
      "å¼ºè°ĥ": 5451,
      "ä¼ı": 5452,
      ",æľĢ": 5453,
      "åĬŀæ³ķ": 5454,
      "78": 5455,
      "äºĭæĥħ": 5456,
      "è´¨çļĦ": 5457,
      "cular": 5458,
      "Ġdemon": 5459,
      "Ġ--": 5460,
      "Ġappropri": 5461,
      "Ġcritical": 5462,
      "Ġut": 5463,
      "89": 5464,
      "ä»Ļ": 5465,
      "Ġsoftware": 5466,
      "ä»¥æĿ¥": 5467,
      "Ġpage": 5468,
      "ae": 5469,
      "æł¹æľ¬": 5470,
      "åŁºéĩĳ": 5471,
      "éŁ©": 5472,
      "ĠPr": 5473,
      "è¿Ľè¡ĮäºĨ": 5474,
      "æĥ³è±¡": 5475,
      "Ġsun": 5476,
      "Ġonline": 5477,
      "Ġapplications": 5478,
      "æ¸ħæ¥ļ": 5479,
      "åķ¦": 5480,
      "åĺī": 5481,
      "Ġwomen": 5482,
      "æĤ²": 5483,
      "ird": 5484,
      "Ġbasic": 5485,
      "è¶ĭåĬ¿": 5486,
      "è´¹çĶ¨": 5487,
      "Ġteachers": 5488,
      "åĲĪæĪĲ": 5489,
      ",åĲĮæĹ¶": 5490,
      "Ġanswer": 5491,
      "ä¸Ļ": 5492,
      "ä»£çłģ": 5493,
      ",å°ı": 5494,
      "eds": 5495,
      "ç¢į": 5496,
      "ä¸ªæľĪ": 5497,
      "æľīäºĨ": 5498,
      "ï¼ģĊ": 5499,
      "Ġinvestig": 5500,
      "åľºæĻ¯": 5501,
      "æķ´çĲĨ": 5502,
      "åľŁå£¤": 5503,
      "Ġclean": 5504,
      "çģ¾": 5505,
      "ä¼łæĦŁ": 5506,
      "åĪ¶åº¦": 5507,
      "Ġfile": 5508,
      "ç³»ç»ŁçļĦ": 5509,
      "åĪĽå»º": 5510,
      "ĠEurope": 5511,
      "ãĢĭãĢģãĢĬ": 5512,
      "æĹģ": 5513,
      "è½¨": 5514,
      "rior": 5515,
      "Ġrelative": 5516,
      "itation": 5517,
      "astic": 5518,
      "81": 5519,
      "ump": 5520,
      "uth": 5521,
      "å¹´æĿ¥": 5522,
      "å¦»": 5523,
      "place": 5524,
      "vere": 5525,
      "Ġhealthy": 5526,
      "æĸ½å·¥": 5527,
      "å¿Ļ": 5528,
      ")ï¼Į": 5529,
      "59": 5530,
      "éĩĩåıĸ": 5531,
      "Ġcalcul": 5532,
      "è¯»ä¹¦": 5533,
      "47": 5534,
      "åĪ¸": 5535,
      "è¯¦ç»Ĩ": 5536,
      "èº«ä»½": 5537,
      "Ġprec": 5538,
      ",ä¼ļ": 5539,
      "Ġtechniques": 5540,
      "aste": 5541,
      "ï¼ĮèĢĮä¸Ķ": 5542,
      "æĻĵ": 5543,
      "ĠĠĠ": 5544,
      "ength": 5545,
      "ï¼ĮåıĪ": 5546,
      "54": 5547,
      "77": 5548,
      "\"ĊĊ": 5549,
      "è®¤çŁ¥": 5550,
      "âĹı": 5551,
      "Ġbal": 5552,
      "ches": 5553,
      "71": 5554,
      "Ġlab": 5555,
      "çĤī": 5556,
      "æ¸ħæĻ": 5557,
      "æ¨¡æĭŁ": 5558,
      "Ġevent": 5559,
      "Ġsolution": 5560,
      "82": 5561,
      "æģ¢å¤į": 5562,
      "Ġbreak": 5563,
      "Ġdemonstr": 5564,
      "éĶģ": 5565,
      "æµģéĩı": 5566,
      "åĿ¦": 5567,
      "ç»ıèĲ¥": 5568,
      "ĠSu": 5569,
      "çĲĨæĥ³": 5570,
      "çļĦå·¥ä½ľ": 5571,
      "Ġcreated": 5572,
      "Ġeff": 5573,
      "Ġcommunication": 5574,
      "Ġfall": 5575,
      "ĠUnited": 5576,
      "çĴĥ": 5577,
      "èµĸ": 5578,
      "åıįæĺł": 5579,
      "Ġdevice": 5580,
      "we": 5581,
      "éĥ½ä¸į": 5582,
      "Ġstreng": 5583,
      "ï¼Įå½ĵ": 5584,
      "åĮ»çĶŁ": 5585,
      "Ġintern": 5586,
      "è®¤çľŁ": 5587,
      "éĥģ": 5588,
      "éģĩåĪ°": 5589,
      ",ä¸İ": 5590,
      "ä¿Ħ": 5591,
      "Ġdat": 5592,
      "å½»": 5593,
      "ulations": 5594,
      "æĬµ": 5595,
      "Ġport": 5596,
      "åħ·å¤ĩ": 5597,
      "ï¼ĮåĲĮæĹ¶": 5598,
      "ming": 5599,
      "éŀĭ": 5600,
      "è§£æŀĲ": 5601,
      "ST": 5602,
      "æĹĹ": 5603,
      "à½": 5604,
      "æº¶æ¶²": 5605,
      "ĠLe": 5606,
      "ãĥ": 5607,
      "orth": 5608,
      "çĥ¦": 5609,
      "åĽºå®ļ": 5610,
      "ãĢĤä½Ĩæĺ¯": 5611,
      "Ġprimary": 5612,
      "Ġprovided": 5613,
      "åģļåĪ°": 5614,
      ");": 5615,
      "93": 5616,
      "æ·±åº¦": 5617,
      "PT": 5618,
      "ians": 5619,
      "æĦĪ": 5620,
      "æıĲä¾ĽäºĨ": 5621,
      "Ġpredict": 5622,
      "ä¸įå°ĳ": 5623,
      "Ġmeet": 5624,
      "Ġproced": 5625,
      "ï¼ĮéĢļè¿ĩ": 5626,
      "ney": 5627,
      "éĵº": 5628,
      "Ġgoing": 5629,
      "ç½ĳç«Ļ": 5630,
      "éĿĴå¹´": 5631,
      "mb": 5632,
      "ä¿ĿéĻ©": 5633,
      "hib": 5634,
      "åľ¨ä¸Ģèµ·": 5635,
      "-in": 5636,
      ")çļĦ": 5637,
      "Ex": 5638,
      "oles": 5639,
      "éĤ£ä¸ª": 5640,
      "ãĢĤï¼Ī": 5641,
      "Ġprevious": 5642,
      "åı¤ä»£": 5643,
      "çļĦåĨħå®¹": 5644,
      "Ġpolit": 5645,
      "è·Į": 5646,
      "pid": 5647,
      "ãĢĤå¦Ĥ": 5648,
      "aling": 5649,
      "Ġsearch": 5650,
      "äºĭå®ŀ": 5651,
      "æµĻ": 5652,
      "é«ĺåº¦": 5653,
      "sh": 5654,
      "Ġsources": 5655,
      "çĩ¥": 5656,
      "Ġpercent": 5657,
      "Ġdesigned": 5658,
      "most": 5659,
      "ĠLear": 5660,
      "éļĨ": 5661,
      "Ġcaused": 5662,
      "Ġlater": 5663,
      "çļĦèĥ½åĬĽ": 5664,
      "Ġcat": 5665,
      "ãĢĤå®ĥ": 5666,
      "è§Ĩè§ī": 5667,
      "Ġbig": 5668,
      "åĲ«æľī": 5669,
      "éĢļçŁ¥": 5670,
      "hing": 5671,
      "æĳĦå½±": 5672,
      "Ġvide": 5673,
      "ried": 5674,
      "ournal": 5675,
      "çļĦæľĢ": 5676,
      "çĿĽ": 5677,
      "æ¡Īä¾ĭ": 5678,
      "âĺħ": 5679,
      "Ġfeatures": 5680,
      "Ġautom": 5681,
      "éĵĿ": 5682,
      "è¿ª": 5683,
      "ä¸ĢåĪĩ": 5684,
      "çļĦäºĭæĥħ": 5685,
      "ension": 5686,
      "imal": 5687,
      "ĠPre": 5688,
      "Ġinj": 5689,
      "83": 5690,
      "Ġacid": 5691,
      "ift": 5692,
      "èĲ¨": 5693,
      "ä¸ĭæĸ¹": 5694,
      "éģµ": 5695,
      "é¢Ħéĺ²": 5696,
      "æĽ´æĸ°": 5697,
      "Ġcut": 5698,
      "æĸ°éĹ»": 5699,
      "èµĦäº§": 5700,
      "Ġconsist": 5701,
      "Ġrespect": 5702,
      "erve": 5703,
      "duc": 5704,
      "æĺ¯æľĢ": 5705,
      "ä¾ĽåºĶ": 5706,
      "ison": 5707,
      "åŃ¤": 5708,
      "Ġpoints": 5709,
      "æµĵåº¦": 5710,
      "æŃ»äº¡": 5711,
      "æ¢¯": 5712,
      "æıĲç¤º": 5713,
      "ges": 5714,
      "Ġshows": 5715,
      "Ġaud": 5716,
      "çī¹æĢ§": 5717,
      "Ġenh": 5718,
      "äº«åıĹ": 5719,
      "å¼¯": 5720,
      "èļĢ": 5721,
      "æīİ": 5722,
      "æģĭ": 5723,
      "alf": 5724,
      ",æĹł": 5725,
      "reme": 5726,
      "å£®": 5727,
      "67": 5728,
      "æĽ´å¤ļçļĦ": 5729,
      "isms": 5730,
      "ãĢĭ,": 5731,
      "å£³": 5732,
      "èī¾": 5733,
      "Ġwhole": 5734,
      "load": 5735,
      "èĩ³å°ĳ": 5736,
      "å¿ĥçļĦ": 5737,
      "åħģ": 5738,
      "èľľ": 5739,
      "Ġnever": 5740,
      "Ġregular": 5741,
      "åŀĤ": 5742,
      "è½¬æį¢": 5743,
      "çľĭçľĭ": 5744,
      "Ġdiet": 5745,
      "Ġteeth": 5746,
      "è´¡": 5747,
      "çĤ¸": 5748,
      "69": 5749,
      "Ġproperties": 5750,
      "ready": 5751,
      "ãĢĤä»İ": 5752,
      "Ġsal": 5753,
      "æľīä¸Ģä¸ª": 5754,
      "åĿ¡": 5755,
      "Ġmatter": 5756,
      "Ġaction": 5757,
      "åĳĺå·¥": 5758,
      "å®¾": 5759,
      "ä¼ĺåĮĸ": 5760,
      "ura": 5761,
      "éĺ²æŃ¢": 5762,
      "Ġonce": 5763,
      "ä¼ĺåħĪ": 5764,
      ",èĥ½": 5765,
      "Ġeye": 5766,
      "ĠThat": 5767,
      "ãĢģé«ĺ": 5768,
      "ç¼Ŀ": 5769,
      "ĠQu": 5770,
      "çİ»çĴĥ": 5771,
      "ï¼Įä¸İ": 5772,
      "éĻª": 5773,
      "ç¿»è¯ĳ": 5774,
      "Ġdifference": 5775,
      "èªī": 5776,
      "åŃķ": 5777,
      "ä¾Ŀæį®": 5778,
      "çļĦå¿ĥ": 5779,
      "order": 5780,
      "åħ¬å¼Ģ": 5781,
      "èĳ¡": 5782,
      "Ġemot": 5783,
      "æĺĮ": 5784,
      "Ġmess": 5785,
      "Ġbenefits": 5786,
      "âĢĿãĢĤĊ": 5787,
      "Ġactually": 5788,
      "Ġeasy": 5789,
      "çļĨ": 5790,
      "åĭĴ": 5791,
      "Ġservices": 5792,
      "Ġforms": 5793,
      "76": 5794,
      "åĪĨç¦»": 5795,
      "ĠStates": 5796,
      "äº§çĶŁçļĦ": 5797,
      "ils": 5798,
      "å½¢æĢģ": 5799,
      "overed": 5800,
      "ml": 5801,
      "æĤŁ": 5802,
      "Ġcode": 5803,
      "åİĺ": 5804,
      "é½¿": 5805,
      ",éĤ£ä¹Ī": 5806,
      "ii": 5807,
      "ĠIntern": 5808,
      "Ġideas": 5809,
      "CD": 5810,
      "çħ§çīĩ": 5811,
      "ĠResearch": 5812,
      "79": 5813,
      "èģĶç½ĳ": 5814,
      "II": 5815,
      "Ġsat": 5816,
      "AB": 5817,
      "ç£·": 5818,
      "ä¸²": 5819,
      "å¹»": 5820,
      "éĩĮéĿ¢": 5821,
      "æ¶Īæģ¯": 5822,
      "åı¥è¯Ŀ": 5823,
      "æ°®": 5824,
      "ä½ĵèĤ²": 5825,
      "gor": 5826,
      "Ġtotal": 5827,
      "Ġtable": 5828,
      "ç²¾å½©": 5829,
      "çłĶåıĳ": 5830,
      "å±±ä¸ľ": 5831,
      "æĦıåĳ³": 5832,
      "åłĨ": 5833,
      "aged": 5834,
      "åĳ¨æľŁ": 5835,
      "é¼»": 5836,
      "ung": 5837,
      "Ġunique": 5838,
      "oon": 5839,
      "æĸ¤": 5840,
      "æĺ¯ä¸į": 5841,
      "Ġaccording": 5842,
      "Ġteaching": 5843,
      "Ġwhite": 5844,
      "Ġachieve": 5845,
      "èİ±": 5846,
      "éĥ½åľ¨": 5847,
      "çºµ": 5848,
      "åºĶå½ĵ": 5849,
      "ok": 5850,
      "æī£": 5851,
      "çĵ¦": 5852,
      "rast": 5853,
      "raft": 5854,
      "æļĤ": 5855,
      "æŃ£å¼ı": 5856,
      "hemat": 5857,
      "Ġremain": 5858,
      "mission": 5859,
      "Ġemb": 5860,
      "è½¬åĮĸ": 5861,
      "å¥¹çļĦ": 5862,
      "ï¼Įä»¥åıĬ": 5863,
      "Ġidea": 5864,
      "ply": 5865,
      "Ġpay": 5866,
      "94": 5867,
      "ä¹ĭå¤ĸ": 5868,
      "æ°¸è¿ľ": 5869,
      "ze": 5870,
      "ÙĦ": 5871,
      "dd": 5872,
      "Ġitself": 5873,
      "Ġslow": 5874,
      "èŀº": 5875,
      "ï¼ĮåĨį": 5876,
      "back": 5877,
      "Wh": 5878,
      "Ġmodern": 5879,
      "è¯´çļĦ": 5880,
      "ç§¦": 5881,
      "Ġlonger": 5882,
      "ãĢģâĢľ": 5883,
      "Ġseen": 5884,
      "ä¸Ĭè¿°": 5885,
      "Ġreturn": 5886,
      "åĲĪçī©": 5887,
      "ä¸ŃåŃ¦": 5888,
      "mar": 5889,
      "æīĢæľīçļĦ": 5890,
      "Ġmemory": 5891,
      "åĲ¸å¼ķ": 5892,
      "ä»¤äºº": 5893,
      "Ġentire": 5894,
      "ĠSystem": 5895,
      "PC": 5896,
      "ç¾İåħĥ": 5897,
      "åĮºåĪ«": 5898,
      "iddle": 5899,
      "è£ģ": 5900,
      "tical": 5901,
      "å§¿": 5902,
      "ä»įçĦ¶": 5903,
      "æĢª": 5904,
      "Ġremov": 5905,
      "æ¾³": 5906,
      "æĽ¾ç»ı": 5907,
      "âĸ²": 5908,
      "æĸĳ": 5909,
      "æŁĲäºĽ": 5910,
      "Ġdeveloping": 5911,
      "åĪºæ¿Ģ": 5912,
      "é¢ĺçĽ®": 5913,
      "Ġuseful": 5914,
      ",æ²¡æľī": 5915,
      "Ġvariety": 5916,
      "åĬ¨æĢģ": 5917,
      "ĠAdd": 5918,
      "ensive": 5919,
      "Ġreact": 5920,
      "ĠMe": 5921,
      "oring": 5922,
      "cell": 5923,
      "Ġpropos": 5924,
      "åįµ": 5925,
      "éģĵè·¯": 5926,
      "Ġsafety": 5927,
      "è¯ĬæĸŃ": 5928,
      "è²Į": 5929,
      "å¹¿åĳĬ": 5930,
      "Ġreally": 5931,
      "Ġlive": 5932,
      "éĩįè§Ĩ": 5933,
      "éģĵå¾·": 5934,
      "ãĢĤ\"ĊĊ": 5935,
      "Ġconc": 5936,
      "Ġdraw": 5937,
      "æĢ§è´¨": 5938,
      "Ġalready": 5939,
      "****": 5940,
      "73": 5941,
      "å¦¹": 5942,
      "ï¼īãĢģ": 5943,
      "æľĢå¤§çļĦ": 5944,
      "Ġeconomic": 5945,
      "è±ª": 5946,
      "Ġspread": 5947,
      "å¤§å°ı": 5948,
      "ĠHealth": 5949,
      "åľ°çĲĨ": 5950,
      "Ġappropriate": 5951,
      "è¡ĮæĶ¿": 5952,
      ",åĽłæŃ¤": 5953,
      "Ġfru": 5954,
      "ufact": 5955,
      "ç»¿èī²": 5956,
      "Ġobtain": 5957,
      "æĿľ": 5958,
      "çĵ·": 5959,
      "æĸľ": 5960,
      "éĢĤå½ĵ": 5961,
      "åĺ´": 5962,
      "ĠAf": 5963,
      "Ġhours": 5964,
      "-term": 5965,
      "è¡¥åħħ": 5966,
      "itis": 5967,
      "Ġdeep": 5968,
      "å°½ç®¡": 5969,
      "æµĨ": 5970,
      "æĺ¾èĳĹ": 5971,
      "aced": 5972,
      "Ġdecre": 5973,
      "æľ¬ç§ĳ": 5974,
      "word": 5975,
      "åĩŃ": 5976,
      "Ġgovernment": 5977,
      "åĽŀçŃĶ": 5978,
      "fully": 5979,
      "ÙĨ": 5980,
      "æ¯ĶèµĽ": 5981,
      "Ġaspect": 5982,
      "ma": 5983,
      "èĤ¯å®ļ": 5984,
      "Ġstop": 5985,
      "åĬ¨æľº": 5986,
      "è¡ĮçļĦ": 5987,
      "åıĳå±ķçļĦ": 5988,
      "èĲĦ": 5989,
      "84": 5990,
      "æ¡Ĥ": 5991,
      "æŁ³": 5992,
      "ä¸Ģèĩ´": 5993,
      "ç»´æĬ¤": 5994,
      "è·ĥ": 5995,
      "ç¡ħ": 5996,
      "èĬ³": 5997,
      "å¯¹æ¯Ķ": 5998,
      "æľĢè¿ĳ": 5999,
      "æĭĶ": 6000,
      "Ġobjects": 6001,
      "è´¸": 6002,
      "Ġcompet": 6003,
      "çĤĴ": 6004,
      "æµ¸": 6005,
      "Ġprint": 6006,
      "Ġemerg": 6007,
      "ĠScience": 6008,
      "Ġsequ": 6009,
      "å¤©æ°Ķ": 6010,
      "å¯Ħ": 6011,
      "èµ¶": 6012,
      "Ġsafe": 6013,
      "ä¸Ģå¹´": 6014,
      "åĩºçīĪç¤¾": 6015,
      "Ġregard": 6016,
      "çĽŁ": 6017,
      "å¾ħéģĩ": 6018,
      "Ġdigital": 6019,
      "èĳ¡èĲĦ": 6020,
      "Ġpoly": 6021,
      "Ġeasily": 6022,
      "Pro": 6023,
      "çĶµè§Ĩ": 6024,
      "Ġdevices": 6025,
      "Ġec": 6026,
      "ä¸įå¥½": 6027,
      "æĢģåº¦": 6028,
      "è®©äºº": 6029,
      "rict": 6030,
      "ä»ĵ": 6031,
      "rogen": 6032,
      "ilt": 6033,
      "éļ¾ä»¥": 6034,
      "Ġdefin": 6035,
      "å°¤åħ¶æĺ¯": 6036,
      "Ġthemselves": 6037,
      "é¢Ī": 6038,
      "Ġscientific": 6039,
      "Ġmax": 6040,
      "å¯Ĩåº¦": 6041,
      "æĺ¯çĶ±": 6042,
      "Ġcomes": 6043,
      "ä¸ŃéĹ´": 6044,
      "åķĨåĵģ": 6045,
      "åĲ¹": 6046,
      "Ġtaking": 6047,
      "éĥĳ": 6048,
      "çļĦçĶŁæ´»": 6049,
      "ipl": 6050,
      "gorith": 6051,
      "Ġmor": 6052,
      ",æĬĬ": 6053,
      "æĦŁåĪ°": 6054,
      "Ġpie": 6055,
      "æĦŁæĥħ": 6056,
      "SC": 6057,
      "çİ¯èĬĤ": 6058,
      "å°Ŀè¯ķ": 6059,
      "aly": 6060,
      "åĪ°åºķ": 6061,
      "aries": 6062,
      "æ¸Ĺ": 6063,
      "ĠNe": 6064,
      "uted": 6065,
      "Ġreflect": 6066,
      "èħ¾": 6067,
      "go": 6068,
      "Ġoutput": 6069,
      "å¯»æī¾": 6070,
      "Ã©": 6071,
      "%çļĦ": 6072,
      "ĠUse": 6073,
      "è°Ĳ": 6074,
      "Ġfive": 6075,
      "åıĺæĪĲ": 6076,
      "Ġbar": 6077,
      "ĠAct": 6078,
      "é¥±": 6079,
      "Cl": 6080,
      "å®ı": 6081,
      "Ġsomeone": 6082,
      "æĶ¶èĹı": 6083,
      "å±Ĥæ¬¡": 6084,
      "Ġfri": 6085,
      "Ġthought": 6086,
      "åįķè¯į": 6087,
      "ï¼Įæ¯ı": 6088,
      "äºķ": 6089,
      "urs": 6090,
      "Ġinput": 6091,
      "åĲĦä¸ª": 6092,
      "æľµ": 6093,
      "çĲĨå¿µ": 6094,
      "æĪĲåĳĺ": 6095,
      "èľĤ": 6096,
      "æĽ¼": 6097,
      "æŀĦå»º": 6098,
      "æĺ¯åĽłä¸º": 6099,
      "ä¸ĩåħĥ": 6100,
      "å¾Īéļ¾": 6101,
      "Ġadj": 6102,
      "åģ¿": 6103,
      "Ġdocument": 6104,
      "æ¬§æ´²": 6105,
      "è¿ħéĢŁ": 6106,
      "æ·Ģ": 6107,
      "èĥº": 6108,
      "å¼ºçļĦ": 6109,
      "Ġspeed": 6110,
      "Ġ#": 6111,
      "Ġtaken": 6112,
      "arr": 6113,
      "ulate": 6114,
      "è½»æĿ¾": 6115,
      "Ġprior": 6116,
      "Ġhab": 6117,
      "ç¾İä¸½": 6118,
      "ä¸ĬéĿ¢": 6119,
      "åľ°ä½į": 6120,
      "ologies": 6121,
      "åī²": 6122,
      "Ġparents": 6123,
      "Ġintegr": 6124,
      "åīįçļĦ": 6125,
      "å½¼": 6126,
      "unt": 6127,
      "å®£ä¼ł": 6128,
      "åŃĺåĤ¨": 6129,
      "è¿ĽæŃ¥": 6130,
      "çĨŁæĤī": 6131,
      "aily": 6132,
      "Ġelectr": 6133,
      "é¸£": 6134,
      "Ġsection": 6135,
      ".\"": 6136,
      "å¾Īå¤ļäºº": 6137,
      "Ġsteps": 6138,
      "ucle": 6139,
      "Ġir": 6140,
      "éĹª": 6141,
      "çľ¼çĿĽ": 6142,
      "åĲĪåĲĮ": 6143,
      "yp": 6144,
      "Ġaim": 6145,
      "åĩºæĿ¥çļĦ": 6146,
      "ä¸įçŁ¥éģĵ": 6147,
      "ront": 6148,
      "Ġconcent": 6149,
      "åįļçī©": 6150,
      "å¤©çĦ¶": 6151,
      "ĠWhile": 6152,
      "Ġclaim": 6153,
      "ights": 6154,
      "Ġstory": 6155,
      "Ġlayer": 6156,
      "åŃ¦ä½į": 6157,
      "Ġbuilding": 6158,
      "Ġservice": 6159,
      "reg": 6160,
      "åĬŀåħ¬": 6161,
      "Ġtell": 6162,
      "æ¯įäº²": 6163,
      "Ġdeath": 6164,
      "æĪĲçĨŁ": 6165,
      "Ġfunctions": 6166,
      "ä¸¥æł¼": 6167,
      "åŀĭçļĦ": 6168,
      "èĩªä¸»": 6169,
      "Ġfib": 6170,
      "åıł": 6171,
      "çŃĭ": 6172,
      "ä»Ķ": 6173,
      "é©¾é©¶": 6174,
      "Ġtend": 6175,
      "nov": 6176,
      "æľīæīĢ": 6177,
      "itch": 6178,
      "Ġgreater": 6179,
      "ä¼łæĦŁåĻ¨": 6180,
      "æ¨¡åĿĹ": 6181,
      "èµĦéĩĳ": 6182,
      "lation": 6183,
      "inter": 6184,
      "ç¦ıåĪ©": 6185,
      "ä¸Ģå¤©": 6186,
      "åħģè®¸": 6187,
      "Ġwritten": 6188,
      "çī¹åĪ«æĺ¯": 6189,
      "æĤ¦": 6190,
      "Ġinside": 6191,
      "å¹¿ä¸ľ": 6192,
      "osure": 6193,
      "æĳĺ": 6194,
      "æµ·æ´ĭ": 6195,
      "æĴĳ": 6196,
      "ï¼ĮæĪĸ": 6197,
      "abet": 6198,
      "æĲŃéħį": 6199,
      "ä¸ĭåĪĹ": 6200,
      ",éĢļè¿ĩ": 6201,
      "æĺĨ": 6202,
      "Ġadapt": 6203,
      "Ġnegative": 6204,
      "åľ³": 6205,
      "Ġstrategies": 6206,
      "Ġdirectly": 6207,
      "ĠDr": 6208,
      ",è¿Ļä¸ª": 6209,
      "éħįç½®": 6210,
      "eration": 6211,
      "orks": 6212,
      "EL": 6213,
      "ĠGen": 6214,
      "Ġthroughout": 6215,
      "éĺ³åħī": 6216,
      "ai": 6217,
      "è½¦è¾Ĩ": 6218,
      ",æĪĸ": 6219,
      "æºª": 6220,
      "æľ¬æ¬¡": 6221,
      "Ġsex": 6222,
      "æĸĩçĮ®": 6223,
      "åĪ©äºİ": 6224,
      "uel": 6225,
      "Re": 6226,
      "ï¼Įå¹¶ä¸Ķ": 6227,
      "è®¾æĸ½": 6228,
      "æ°Ľ": 6229,
      "æ¸ħæĻ°": 6230,
      ",ä»¥åıĬ": 6231,
      "æĪĲç«ĭ": 6232,
      "Ġattention": 6233,
      "Ġexamples": 6234,
      "çĶŁç´ł": 6235,
      "çĽĨ": 6236,
      "Ġevents": 6237,
      "å¤§å¤ļæķ°": 6238,
      "Ġenvironmental": 6239,
      "æĪĺçķ¥": 6240,
      "å°±èĥ½": 6241,
      "éĹ®é¢ĺçļĦ": 6242,
      "æĶ¹éĿ©": 6243,
      "åİĺç±³": 6244,
      "Ġguid": 6245,
      "æĤ¬": 6246,
      "Ġrefer": 6247,
      "Ġvisual": 6248,
      "æīĭæ®µ": 6249,
      "ĠNo": 6250,
      "Ġupon": 6251,
      "æ·±åľ³": 6252,
      "Ġexpress": 6253,
      "Ġclin": 6254,
      "ç§ĳåŃ¦å®¶": 6255,
      "åį±éĻ©": 6256,
      "isions": 6257,
      "Ġadditional": 6258,
      "oud": 6259,
      "====": 6260,
      "å°ĳå¹´": 6261,
      "å¾Īå¤§": 6262,
      "Ġface": 6263,
      ",çĶļèĩ³": 6264,
      "è¿ĲèĲ¥": 6265,
      "æıĲåīį": 6266,
      "Ġsays": 6267,
      "ensity": 6268,
      "éĽ¾": 6269,
      "ĠNational": 6270,
      "Ġinitial": 6271,
      "Ġç¬¬": 6272,
      "èŀįåĲĪ": 6273,
      "çłĤ": 6274,
      "é¢ĳçİĩ": 6275,
      "åĶ¯ä¸Ģ": 6276,
      "éĩįå¤į": 6277,
      ",ä»İèĢĮ": 6278,
      "Ġcomponents": 6279,
      "ured": 6280,
      "æľīçĿĢ": 6281,
      "Ġshare": 6282,
      "Ġgenerally": 6283,
      "rist": 6284,
      "æĢİæł·": 6285,
      "irm": 6286,
      "éĤĢ": 6287,
      "Ġgain": 6288,
      "è¿ĩçļĦ": 6289,
      "ĠAfric": 6290,
      "ä»£è°¢": 6291,
      "Ġpack": 6292,
      "ãĢģå¤§": 6293,
      "åŃ¦çļĦ": 6294,
      "éŃĤ": 6295,
      "çĽĴ": 6296,
      "æ¼Ĥ": 6297,
      "ĠMod": 6298,
      "ĠKe": 6299,
      "æĸ¹éĿ¢çļĦ": 6300,
      "ä¸Ĭä¸ĭ": 6301,
      "Ġrequires": 6302,
      "è¿«": 6303,
      "é¥®é£Ł": 6304,
      "å¥³äºº": 6305,
      "Ġcountry": 6306,
      "Ġexc": 6307,
      "Ġdoctor": 6308,
      "ç¨į": 6309,
      "raction": 6310,
      "æĹ©æľŁ": 6311,
      "ï¼ĮåĮħæĭ¬": 6312,
      "oll": 6313,
      "çĭĤ": 6314,
      "hens": 6315,
      "æ±Ĺ": 6316,
      "-C": 6317,
      "olic": 6318,
      "oor": 6319,
      "âĳ¢": 6320,
      "Ġharm": 6321,
      "ription": 6322,
      "æ¡Į": 6323,
      "Ġsomet": 6324,
      "Ġpsych": 6325,
      "ields": 6326,
      "ygen": 6327,
      "å°ºå¯¸": 6328,
      "ography": 6329,
      "æ·ĭ": 6330,
      "å§ľ": 6331,
      "åĨĴ": 6332,
      "ĠĠãĢĢ": 6333,
      "ç»Ŀå¯¹": 6334,
      "Ġpurpose": 6335,
      "ged": 6336,
      "ãĢĭä¸Ń": 6337,
      "ancial": 6338,
      "\"ãĢĤĊĊ": 6339,
      "Ġdynam": 6340,
      "ç§ĳçłĶ": 6341,
      "çļĦæ°´": 6342,
      "æĦıåĳ³çĿĢ": 6343,
      "Ġliving": 6344,
      "å¤¹": 6345,
      "rand": 6346,
      "Ġimages": 6347,
      "Ġencou": 6348,
      "èĤ©": 6349,
      "ĠAb": 6350,
      "ç®Ģä»ĭ": 6351,
      "æģ°": 6352,
      "Ġfoods": 6353,
      "äººæķ°": 6354,
      "ä¼Ļä¼´": 6355,
      "åĬ©äºİ": 6356,
      "çŁ©": 6357,
      "ç½ļ": 6358,
      "Ġteacher": 6359,
      "Ġtakes": 6360,
      "çļĦè¿ĩç¨ĭ": 6361,
      "Ġprogress": 6362,
      "åľ¨çº¿": 6363,
      "åħ¬åĽŃ": 6364,
      "RO": 6365,
      "æľĢæĸ°": 6366,
      "Ġblack": 6367,
      "æĭĽçĶŁ": 6368,
      "åħ¬åĳĬ": 6369,
      "å§Ĩ": 6370,
      "Ġste": 6371,
      "ixed": 6372,
      "æĺİçĻ½": 6373,
      "Ġeyes": 6374,
      "æĵ¦": 6375,
      "æĿ¥äºĨ": 6376,
      "Ġload": 6377,
      "Ġapplied": 6378,
      "www": 6379,
      "å¿ĹæĦ¿": 6380,
      "MS": 6381,
      "è¾ŀ": 6382,
      "å§Ķåĳĺä¼ļ": 6383,
      "Ġjob": 6384,
      "Ġfamil": 6385,
      "US": 6386,
      "æīĵéĢł": 6387,
      "Ġcapac": 6388,
      "ç»ĨèĬĤ": 6389,
      "æĬ¢": 6390,
      "åĪĳ": 6391,
      "çĶ»éĿ¢": 6392,
      "è´·": 6393,
      "è¾ī": 6394,
      "ãĢĤä¸Ģ": 6395,
      "åĪłéĻ¤": 6396,
      "ãĢĤè¿ĻäºĽ": 6397,
      "Ġang": 6398,
      "ĠEduc": 6399,
      "Ġarch": 6400,
      "Ġparticularly": 6401,
      "uit": 6402,
      "apter": 6403,
      "Ġfire": 6404,
      "èĤª": 6405,
      "è¢ĭ": 6406,
      "éĶ»": 6407,
      "è¥¿æĸ¹": 6408,
      "åįģäºĮ": 6409,
      "çĽ¾": 6410,
      "hel": 6411,
      "æĳĩ": 6412,
      "Ûķ": 6413,
      "åĲĪéĩĳ": 6414,
      "stry": 6415,
      "æļĳ": 6416,
      "æīĢç¤º": 6417,
      "IV": 6418,
      "Ġmonitor": 6419,
      "å°½éĩı": 6420,
      "åĵģè´¨": 6421,
      "Ġcentury": 6422,
      "è¯±": 6423,
      "Ġmovement": 6424,
      "Ġusers": 6425,
      "ĠGo": 6426,
      "acks": 6427,
      "çĪ¶äº²": 6428,
      "izes": 6429,
      ",çľĭ": 6430,
      "éĴĻ": 6431,
      "é¼ĵåĬ±": 6432,
      "èĦĤèĤª": 6433,
      "Ġpict": 6434,
      "Ġaverage": 6435,
      "çļĦä¸Ģç§į": 6436,
      "åĳ¨åĽ´": 6437,
      "Ġstates": 6438,
      ",åį´": 6439,
      "RE": 6440,
      "Ġå¹´": 6441,
      "çħ¤": 6442,
      "çĬ¶åĨµ": 6443,
      "åľ°çļĦ": 6444,
      "Ġseries": 6445,
      "-st": 6446,
      "æµĻæ±Ł": 6447,
      "Ġcru": 6448,
      "CP": 6449,
      "çªģçł´": 6450,
      "Ġtests": 6451,
      "è§Ĵèī²": 6452,
      "å®ŀéªĮå®¤": 6453,
      "éĥ½èĥ½": 6454,
      "Ġactive": 6455,
      ",å¹¶ä¸Ķ": 6456,
      "sp": 6457,
      "ĠAc": 6458,
      "ä»İäºĭ": 6459,
      "Ġsometimes": 6460,
      "åĽ¾ä¹¦": 6461,
      "åı¯ä»¥åľ¨": 6462,
      "Ġalgorith": 6463,
      "ä¸įåĨį": 6464,
      "åĲįåŃĹ": 6465,
      "Ġgreen": 6466,
      "åĽŀå¤į": 6467,
      "ï¼ĮæĽ´": 6468,
      "ĠAfter": 6469,
      "aut": 6470,
      "æıŃ": 6471,
      "Ġcompany": 6472,
      "Ġbreat": 6473,
      "istry": 6474,
      "Ġrights": 6475,
      "overy": 6476,
      "æĻĭ": 6477,
      "åĲĲ": 6478,
      "ãĢĭçļĦ": 6479,
      "Ġinterp": 6480,
      "rv": 6481,
      "Ġdoesn": 6482,
      "Ġprograms": 6483,
      "augh": 6484,
      "çĶµæľº": 6485,
      "Ġcontains": 6486,
      "ech": 6487,
      "ogen": 6488,
      "å®ŀéĻħä¸Ĭ": 6489,
      "Ġhyp": 6490,
      "Ġtypically": 6491,
      "å¤§éĥ¨åĪĨ": 6492,
      "Ġextreme": 6493,
      "çĽ¸åħ³çļĦ": 6494,
      "Ġscientists": 6495,
      "å¾Ĵ": 6496,
      "vey": 6497,
      "èĥĢ": 6498,
      "ä¸»è¦ģæĺ¯": 6499,
      "çĪ±çļĦ": 6500,
      "Ġhumans": 6501,
      "Ġmanufact": 6502,
      "arily": 6503,
      "çĶŁæ´»ä¸Ń": 6504,
      "æ¬£èµı": 6505,
      "è¶³å¤Ł": 6506,
      "å®Ŀå®Ŀ": 6507,
      "æ£ĢéªĮ": 6508,
      "ĠEm": 6509,
      "éĩįå¤§": 6510,
      "~ĊĊ": 6511,
      "ĠPer": 6512,
      "Ġcard": 6513,
      "ï¼Įåħ¶ä¸Ń": 6514,
      "Ġrecent": 6515,
      "Ġsimply": 6516,
      "å¯¹æĸ¹": 6517,
      "ç¢°": 6518,
      "erous": 6519,
      "Ġaltern": 6520,
      "ecause": 6521,
      "èµĦæľ¬": 6522,
      "æ°´çļĦ": 6523,
      "Ġcontroll": 6524,
      "74": 6525,
      "come": 6526,
      "ä½ľæĸĩ": 6527,
      "ç§¯ç´¯": 6528,
      "çº¢èī²": 6529,
      ",è¿ĺæľī": 6530,
      "'re": 6531,
      "ä¼¼ä¹İ": 6532,
      ",å¤ļ": 6533,
      "æĲº": 6534,
      "æīĢåľ¨": 6535,
      "ĠHere": 6536,
      "è¯»èĢħ": 6537,
      "Ġbacteria": 6538,
      "éħįåĲĪ": 6539,
      "å¾·åĽ½": 6540,
      "çļĦåŃ¦ä¹ł": 6541,
      "åĪĨæķ°": 6542,
      "Ġtrue": 6543,
      "ç©·": 6544,
      "æĲŀ": 6545,
      "Ġhistor": 6546,
      "Ġwebs": 6547,
      "Ġbehavi": 6548,
      "Ġthinking": 6549,
      ".ĊĊ": 6550,
      "Ġwarm": 6551,
      "çħ®": 6552,
      "know": 6553,
      "éĺĶ": 6554,
      "iction": 6555,
      "Ġcompared": 6556,
      "artment": 6557,
      "mosp": 6558,
      "Ġblock": 6559,
      "imin": 6560,
      "ĠGu": 6561,
      "uck": 6562,
      "è¯ģä¹¦": 6563,
      "ä¸¨": 6564,
      "Ġrev": 6565,
      "Ġinfection": 6566,
      "çĶŁæ´»çļĦ": 6567,
      "ï¼ĮéĤ£ä¹Ī": 6568,
      "Ġshape": 6569,
      "å¤ļæł·": 6570,
      "æĻ¨": 6571,
      "åŃ¦èĢħ": 6572,
      "è¿Ł": 6573,
      "é«ĺçº§": 6574,
      "ãĢĤåħ¶": 6575,
      "Ġconnect": 6576,
      "Ġmoney": 6577,
      "empt": 6578,
      "æłı": 6579,
      "imately": 6580,
      "æ³ķåĽ½": 6581,
      "åı¯èĥ½æĺ¯": 6582,
      "äºĴåĬ¨": 6583,
      "Ġelement": 6584,
      "Ġaccept": 6585,
      "Ġdoing": 6586,
      "åĲĮä¸Ģ": 6587,
      "ç®ĢåįķçļĦ": 6588,
      "æłª": 6589,
      "\"ãĢĤ": 6590,
      "å¾®çĶŁçī©": 6591,
      "Ġoverall": 6592,
      "å¤©çļĦ": 6593,
      "Ġcover": 6594,
      "åī©": 6595,
      "ider": 6596,
      "uration": 6597,
      "Ġsmo": 6598,
      "Ġsurv": 6599,
      "Ġpublished": 6600,
      "èį¡": 6601,
      "å·ŀå¸Ĥ": 6602,
      "Sc": 6603,
      "Ġexercise": 6604,
      "åĽĬ": 6605,
      ".c": 6606,
      "æīĭæľ¯": 6607,
      "Ġdry": 6608,
      "è´¡çĮ®": 6609,
      "Ġindepend": 6610,
      "äººå·¥æĻºèĥ½": 6611,
      "Ġmembers": 6612,
      "æłĩå¿Ĺ": 6613,
      "Ġelectric": 6614,
      "Ġsevere": 6615,
      "åĪ¶å®ļ": 6616,
      "Ġweek": 6617,
      "çīĪæĿĥ": 6618,
      "æĴŀ": 6619,
      "çĶ¨æĿ¥": 6620,
      "Ġinstead": 6621,
      "ä¸Ģæ®µ": 6622,
      "Ġtesting": 6623,
      "Ġarr": 6624,
      "Ġsite": 6625,
      "aving": 6626,
      "çº¿ä¸Ĭ": 6627,
      "èİ²": 6628,
      "Ph": 6629,
      "ç¼ºä¹ı": 6630,
      "Ġissue": 6631,
      "Ġmonths": 6632,
      "éħĴåºĹ": 6633,
      "set": 6634,
      "ä¹ĭä¸Ń": 6635,
      ",èĢĮæĺ¯": 6636,
      "æį·": 6637,
      "Ġsust": 6638,
      "éĺĢ": 6639,
      "åħ³èĬĤ": 6640,
      "Ġyet": 6641,
      "æħ¢æħ¢": 6642,
      "æ³¨éĩį": 6643,
      "ä¸°å¯ĮçļĦ": 6644,
      "ned": 6645,
      "Ġparamet": 6646,
      "Ġpoll": 6647,
      "Ġstructures": 6648,
      "Ġinvolved": 6649,
      "Ġeffic": 6650,
      "Ġregion": 6651,
      "Ġhighly": 6652,
      ",ĊĊ": 6653,
      "åĮ¹": 6654,
      "Ġestim": 6655,
      "osing": 6656,
      "Ġculture": 6657,
      "ä»¥ä¸º": 6658,
      "Ġcreating": 6659,
      "çĶµæºĲ": 6660,
      "iot": 6661,
      "Ġful": 6662,
      "Ġtherefore": 6663,
      "itude": 6664,
      "fect": 6665,
      "æĥľ": 6666,
      "å¼Ĥå¸¸": 6667,
      "ãĢĤè¿Ļç§į": 6668,
      "çĶ»å®¶": 6669,
      "ä¹ĥ": 6670,
      "Ġlarger": 6671,
      "æ´ª": 6672,
      "Ġforce": 6673,
      "æĪĲå°±": 6674,
      "çĶµèĦĳ": 6675,
      "åĲĪæł¼": 6676,
      "Ġgraph": 6677,
      "éķ¿çļĦ": 6678,
      "Ġthus": 6679,
      "aff": 6680,
      "åĬłä¸Ĭ": 6681,
      "odes": 6682,
      "æ·ĺ": 6683,
      "èĤĮèĤī": 6684,
      "æ±ģ": 6685,
      "ĠComp": 6686,
      "Ġrout": 6687,
      "Ġvirus": 6688,
      "ĠComm": 6689,
      "Ġanimal": 6690,
      "å½ķåıĸ": 6691,
      "ieved": 6692,
      "çĤ¹çļĦ": 6693,
      "æĶ¶éĽĨ": 6694,
      "ç»ĨèıĮ": 6695,
      "æĮĸ": 6696,
      "åĩ¤": 6697,
      "issions": 6698,
      "Ġfill": 6699,
      "ç¬¬ä¸Ģæ¬¡": 6700,
      "æŃ¤æĹ¶": 6701,
      "icial": 6702,
      "gar": 6703,
      "Ġgame": 6704,
      "Ġdog": 6705,
      "Ġhold": 6706,
      "éĿ©åĳ½": 6707,
      "MP": 6708,
      "éģŃ": 6709,
      "ä¸»ä½ĵ": 6710,
      "minist": 6711,
      "Ġimportance": 6712,
      "wh": 6713,
      ".e": 6714,
      "æĦ¿æĦı": 6715,
      "Ġquickly": 6716,
      "äººåı£": 6717,
      "èĭ±æĸĩ": 6718,
      "ublic": 6719,
      "Ġsqu": 6720,
      "è¾Ī": 6721,
      "æĭľ": 6722,
      "inks": 6723,
      "å©Ĩ": 6724,
      "æİ¨è¿Ľ": 6725,
      "æķĪåºĶ": 6726,
      "èīºæľ¯å®¶": 6727,
      "èĢĥå¯Ł": 6728,
      "sis": 6729,
      "lated": 6730,
      "Ġprotein": 6731,
      "Ġsil": 6732,
      "Ġrequirements": 6733,
      "åĲĮåŃ¦ä»¬": 6734,
      "itute": 6735,
      "è¡Ģæ¶²": 6736,
      "åħ¶å®ĥ": 6737,
      "å¹¼åĦ¿åĽŃ": 6738,
      "éĴł": 6739,
      "æĮĩåĩº": 6740,
      "Ġhouse": 6741,
      "Ġoffer": 6742,
      "Ġtree": 6743,
      "æĶ¯ä»ĺ": 6744,
      ">Ċ": 6745,
      "Ġdest": 6746,
      "Ġoccurs": 6747,
      "Ġfem": 6748,
      "ãĢĤåĲĮæĹ¶": 6749,
      "å¼ķåıĳ": 6750,
      "ï¼Įè¿ĻäºĽ": 6751,
      "Ġassign": 6752,
      "çĻ½èī²": 6753,
      "æľĢå¥½": 6754,
      ",è¿ĻäºĽ": 6755,
      ",åħ¶ä¸Ń": 6756,
      "Ġaware": 6757,
      "resh": 6758,
      "Ġtravel": 6759,
      "asons": 6760,
      "æµģåĬ¨": 6761,
      "Ġtherapy": 6762,
      "ç¦»å¼Ģ": 6763,
      "æ³¨åĨĮ": 6764,
      "åı¯è§ģ": 6765,
      ".åľ¨": 6766,
      "æĢĿè·¯": 6767,
      "æ»ĭ": 6768,
      "åŃ¦å®¶": 6769,
      "Ġoutside": 6770,
      "çªģçĦ¶": 6771,
      "Ġder": 6772,
      "ãĢĤæľī": 6773,
      "ĠCar": 6774,
      "Ġsociety": 6775,
      "é¢Ĺç²Ĵ": 6776,
      "æ·±åĪ»": 6777,
      ",æ¯Ķå¦Ĥ": 6778,
      "Ġsustain": 6779,
      "eed": 6780,
      "äºĴèģĶç½ĳ": 6781,
      "ï¼ĮæĬĬ": 6782,
      "åĪĿä¸Ń": 6783,
      "çļĦåİŁåĽł": 6784,
      "ĠPe": 6785,
      "ç¡®å®ŀ": 6786,
      "Ġmachine": 6787,
      "åıī": 6788,
      "ender": 6789,
      "ners": 6790,
      "And": 6791,
      "Ġsample": 6792,
      "Ġefficient": 6793,
      "ãĢĳãĢĲ": 6794,
      ",åıª": 6795,
      "âī": 6796,
      "Ġlength": 6797,
      "çļĦå¥½": 6798,
      "èº«è¾¹": 6799,
      ")ãĢĤĊ": 6800,
      "Ġlif": 6801,
      "Ġdaily": 6802,
      "æĮĩæķ°": 6803,
      "æĥ³æ³ķ": 6804,
      "Ġdisplay": 6805,
      "ä¸Ńæľī": 6806,
      "Ġast": 6807,
      "Ġmillion": 6808,
      "é³": 6809,
      "itution": 6810,
      "Ġkids": 6811,
      "çĪ±æĥħ": 6812,
      "cles": 6813,
      "Ġì": 6814,
      "Ġadvant": 6815,
      "ä¸ĢæĿ¡": 6816,
      "èµļ": 6817,
      "ç¼´": 6818,
      "iol": 6819,
      "è®°å¾Ĺ": 6820,
      "åĲĪéĢĤ": 6821,
      "hood": 6822,
      "Ġprep": 6823,
      "Ġindustry": 6824,
      "ï¼ĮéĤ£": 6825,
      "ç»ıçĲĨ": 6826,
      "åĩºçĶŁ": 6827,
      "æĨ": 6828,
      "å¦Ĥæŀľä½ł": 6829,
      "çļĦä¸į": 6830,
      "Ġthing": 6831,
      "æĬ¥èĢĥ": 6832,
      "ĠåĴĮ": 6833,
      "çł´åĿı": 6834,
      "Ġlines": 6835,
      "lor": 6836,
      "lick": 6837,
      "Ġcateg": 6838,
      "å®ļä½į": 6839,
      "ãĢĤåĽłä¸º": 6840,
      "å¾½": 6841,
      "éĴ»": 6842,
      "onal": 6843,
      "Ġeth": 6844,
      "éĢĤçĶ¨äºİ": 6845,
      "åĬŁçİĩ": 6846,
      "Ġspect": 6847,
      "ĠMore": 6848,
      "æĹ¨": 6849,
      "æľĢä½³": 6850,
      "ç¥¥": 6851,
      "éĵ¾æİ¥": 6852,
      "åıĳèĤ²": 6853,
      "çļĦåħ³ç³»": 6854,
      "éªĮè¯ģ": 6855,
      "éªĹ": 6856,
      "æįķ": 6857,
      "çĽ´åĪ°": 6858,
      "ä¸įäºĨ": 6859,
      "å¿§": 6860,
      "ï¼Įè¯·": 6861,
      "Ġearth": 6862,
      "èī³": 6863,
      "ĠPart": 6864,
      "éĤ»": 6865,
      "Ġprofessional": 6866,
      "ĠÂ": 6867,
      "åİŁåŃĲ": 6868,
      "Ġbroad": 6869,
      "æıĲéĨĴ": 6870,
      "éĨī": 6871,
      "Ġdepend": 6872,
      "å¼¦": 6873,
      "ipment": 6874,
      "ĠAm": 6875,
      "SS": 6876,
      "ä¸ĭè½½": 6877,
      "ãĢĤçĦ¶èĢĮ": 6878,
      "æľ¬è´¨": 6879,
      "Ġproviding": 6880,
      "å®ĮåĸĦ": 6881,
      "Ġconver": 6882,
      "Ġchoose": 6883,
      "ĠCons": 6884,
      "\\*": 6885,
      "æĦıè§ģ": 6886,
      "åįıè®®": 6887,
      "Ġproduced": 6888,
      "Ġpractices": 6889,
      "Ġlimited": 6890,
      "imens": 6891,
      "ãĢĤâĢľ": 6892,
      "åĨ»": 6893,
      "ç¾İå¥½": 6894,
      "Ġminutes": 6895,
      "Ġlack": 6896,
      "izations": 6897,
      "åĪ©çĽĬ": 6898,
      "ãĢģæľī": 6899,
      "å¿į": 6900,
      "ĠTechn": 6901,
      "à¸": 6902,
      "çīĪæľ¬": 6903,
      "ç¡ķå£«": 6904,
      "è¾£": 6905,
      "é¡ºåºı": 6906,
      "èģĶç³»çĶµè¯Ŀ": 6907,
      "urb": 6908,
      "éŃĶ": 6909,
      "ulated": 6910,
      "Ġult": 6911,
      "çĶŁåŃĺ": 6912,
      "ãĢģä¸į": 6913,
      "Ġinstall": 6914,
      "ault": 6915,
      "Ġevolution": 6916,
      "Ġcommunic": 6917,
      "ancy": 6918,
      "att": 6919,
      "Ġwon": 6920,
      "åĨįæ¬¡": 6921,
      "Ġbasis": 6922,
      "ä»°": 6923,
      "Ġvia": 6924,
      "ä¸ĭåįĪ": 6925,
      "çĶµéĺ»": 6926,
      "Ġtraditional": 6927,
      "çĽĪ": 6928,
      "éĻĦè¿ĳ": 6929,
      "ä½¿çĶ¨çļĦ": 6930,
      "åĲ¯åĬ¨": 6931,
      "rm": 6932,
      "âĢĿãĢģâĢľ": 6933,
      "Ġvit": 6934,
      "åįļçī©é¦Ĩ": 6935,
      "ä¿®æĶ¹": 6936,
      "æī¿æĭħ": 6937,
      "Ġbase": 6938,
      "itable": 6939,
      "ï¼Įä»ĸä»¬": 6940,
      "æ¿Ģåıĳ": 6941,
      "Ġoxygen": 6942,
      ",ä¸ŃåĽ½": 6943,
      "Ġsuff": 6944,
      "CC": 6945,
      "Ġhalf": 6946,
      "ä¾ĿçĦ¶": 6947,
      "Ġtum": 6948,
      "Ġvideo": 6949,
      "çº²": 6950,
      "Ġcool": 6951,
      "ï¼ĮçĶ±": 6952,
      "âĨĵâĨĵ": 6953,
      "Ġeat": 6954,
      "Ġunit": 6955,
      "æī«æıı": 6956,
      "åıĻ": 6957,
      "âĢĺ": 6958,
      "ç¬¬ä¸Ģä¸ª": 6959,
      "å®ħ": 6960,
      "å¹¶ä¸įæĺ¯": 6961,
      "Ġassessment": 6962,
      "Ġexact": 6963,
      ",ä¹Łæĺ¯": 6964,
      "AA": 6965,
      "æīįæĺ¯": 6966,
      "Ġclassroom": 6967,
      "è¸ı": 6968,
      "Ġconstant": 6969,
      "ĠCal": 6970,
      "å©´": 6971,
      "Ġä¸Ģ": 6972,
      "å¤ļå¹´": 6973,
      "çºł": 6974,
      "ĠInc": 6975,
      "atives": 6976,
      "Ġmedia": 6977,
      "éĻ¢æł¡": 6978,
      "èĲ¥éĶĢ": 6979,
      "amples": 6980,
      "Ġchallenges": 6981,
      "çªģåĩº": 6982,
      "Ġdefined": 6983,
      "ä¸įéĻĲ": 6984,
      "æĭįæĳĦ": 6985,
      "å½ĵä»£": 6986,
      "ä¼łéĢĴ": 6987,
      "resp": 6988,
      "æľīä»Ģä¹Ī": 6989,
      "Ġacad": 6990,
      "Ġpatterns": 6991,
      "å¾Īå¥½": 6992,
      "Ġdatab": 6993,
      "GB": 6994,
      "åħ¬éĩĮ": 6995,
      "åĪĨè§£": 6996,
      "é¬": 6997,
      "Ġweb": 6998,
      "åĽĽä¸ª": 6999,
      "æ³Į": 7000,
      "rehens": 7001,
      "Ġtissue": 7002,
      "Ġbur": 7003,
      "Ġdiseases": 7004,
      "ounds": 7005,
      "irection": 7006,
      "åĿĩåĮĢ": 7007,
      "Ġdifferences": 7008,
      "Ġcold": 7009,
      "æĻ®éģį": 7010,
      ",åĪĻ": 7011,
      "èĳ£": 7012,
      "æ³Ħ": 7013,
      "Ġwall": 7014,
      "Ġbecomes": 7015,
      "Ġwa": 7016,
      "å½¢çĬ¶": 7017,
      "å°±åĥı": 7018,
      "å¤§åĪ©": 7019,
      "Ġexplore": 7020,
      "æ¸¡": 7021,
      "orpor": 7022,
      "Ġlove": 7023,
      "é«ĺéĢŁ": 7024,
      "åŁĥ": 7025,
      "Ġdetect": 7026,
      "åĴĸ": 7027,
      "unction": 7028,
      "è¦ĨçĽĸ": 7029,
      "æİĴåĲį": 7030,
      "-S": 7031,
      "æ²³åįĹ": 7032,
      "Â·Â·Â·Â·": 7033,
      "æŀª": 7034,
      "ype": 7035,
      "Ġdeb": 7036,
      "Ġpolitical": 7037,
      "ãĢĤéĢļè¿ĩ": 7038,
      "éĶĭ": 7039,
      "ç«ĭåį³": 7040,
      "è´«": 7041,
      "æľŁå¾ħ": 7042,
      "çĪ·": 7043,
      "ĠAcc": 7044,
      "Ġatmosp": 7045,
      "na": 7046,
      "æĸĩæľ¬": 7047,
      "org": 7048,
      "åĨ³çŃĸ": 7049,
      "çĽ¸ä¼¼": 7050,
      ",åĮħæĭ¬": 7051,
      "æĦŁè°¢": 7052,
      "æĮº": 7053,
      "Ġpan": 7054,
      "asks": 7055,
      "cean": 7056,
      "æĻļä¸Ĭ": 7057,
      "å¥Ķ": 7058,
      "çĩķ": 7059,
      "åīĳ": 7060,
      "ĠCo": 7061,
      "ãĢĤæŃ¤å¤ĸ": 7062,
      "pir": 7063,
      "Ġtopic": 7064,
      "ï¼Įå°±æĺ¯": 7065,
      "é©±åĬ¨": 7066,
      "Ġaccur": 7067,
      "Ġreve": 7068,
      "Ġever": 7069,
      "hesis": 7070,
      "ulum": 7071,
      "right": 7072,
      "éĥ½åı¯ä»¥": 7073,
      "çĬ¹": 7074,
      "Ġoriginal": 7075,
      "å±ħæ°ĳ": 7076,
      "æ³µ": 7077,
      "Ġsignal": 7078,
      "Ġstage": 7079,
      "where": 7080,
      "è®©æĪĳä»¬": 7081,
      "ç¡®è®¤": 7082,
      "éĢĥ": 7083,
      "ĠSchool": 7084,
      "ĠOur": 7085,
      "Ġnational": 7086,
      "EC": 7087,
      "Ġphase": 7088,
      "åŃ¦ä¹łçļĦ": 7089,
      "ĠDep": 7090,
      "äººåľ¨": 7091,
      "-h": 7092,
      "Ġalmost": 7093,
      "å°ıç¼ĸ": 7094,
      "éĶ¦": 7095,
      "æ£Ĵ": 7096,
      "æŃ£æĺ¯": 7097,
      "åĿĽ": 7098,
      "æĭĴ": 7099,
      "fort": 7100,
      "âĢĿâĢľ": 7101,
      "âĢįâĢį": 7102,
      "yond": 7103,
      "æıĲåıĸ": 7104,
      "ç»ĻäºĪ": 7105,
      "åĪĽä¸ļ": 7106,
      "ran": 7107,
      "é¦Ī": 7108,
      "å±Ī": 7109,
      "atform": 7110,
      "çļĦåīį": 7111,
      "ãĢĤè¯¥": 7112,
      "Ġexpect": 7113,
      "å¿ł": 7114,
      "éĶ»çĤ¼": 7115,
      "Ġcross": 7116,
      "å¤±åİ»": 7117,
      "ä¸įçĶ¨": 7118,
      "çŁĽ": 7119,
      "å°ıè¯´": 7120,
      "èı²": 7121,
      "-g": 7122,
      "Ġpopular": 7123,
      "-to": 7124,
      "æİ¥è¿ĳ": 7125,
      "ç¢ĳ": 7126,
      "çĽĳæµĭ": 7127,
      "èĢģå¹´": 7128,
      "ðŁĳ": 7129,
      "ãĢĤãĢĬ": 7130,
      "è¾Ĳ": 7131,
      "æ°ĶåĢĻ": 7132,
      "Ġep": 7133,
      "æĶ¾å¼ĥ": 7134,
      "Ġutil": 7135,
      "ustr": 7136,
      "éĢīé¡¹": 7137,
      "ellig": 7138,
      "åĤ¬åĮĸ": 7139,
      "æĭĮ": 7140,
      "Ġscale": 7141,
      "Ġcry": 7142,
      "Com": 7143,
      "ãĢĤãĢĤ": 7144,
      "å£°æĺİ": 7145,
      "è¯Ħè®º": 7146,
      "Ġinfluence": 7147,
      "åģļåĩº": 7148,
      "pper": 7149,
      "ä¸įéĶĻ": 7150,
      "æĬķåħ¥": 7151,
      "åı¥åŃĲ": 7152,
      "éģĹä¼ł": 7153,
      "åıįå¤į": 7154,
      "éļľç¢į": 7155,
      "èĪĮ": 7156,
      "è¯ĹæŃĮ": 7157,
      "æ»ļ": 7158,
      "è¾ħåĬ©": 7159,
      "ä¸Ĭåįĩ": 7160,
      "ĠDNA": 7161,
      "Ġtowards": 7162,
      "Ġlooking": 7163,
      "Ġlimit": 7164,
      "æ¯ıä¸Ģä¸ª": 7165,
      "Ġfinancial": 7166,
      "æ¡Ĩæŀ¶": 7167,
      "ä¼ļåĳĺ": 7168,
      "æ³ª": 7169,
      "å®ĺæĸ¹": 7170,
      "æĺ¯æľī": 7171,
      "åĮħè£ħ": 7172,
      "å¨ĺ": 7173,
      "iples": 7174,
      "ĠWhy": 7175,
      "å¸¸è§ģçļĦ": 7176,
      "Ġrat": 7177,
      "ĠWorld": 7178,
      "lamm": 7179,
      "Ġincreases": 7180,
      "Ġseem": 7181,
      "è¯µ": 7182,
      "Ġmental": 7183,
      "éĵ¸": 7184,
      "é«ĺæ¸©": 7185,
      "å¤§éĩıçļĦ": 7186,
      "éĥ¨ä½į": 7187,
      "Ġfrequency": 7188,
      "å±ķçİ°": 7189,
      "åİ¨": 7190,
      "å±±æ°´": 7191,
      "åİŁæĸĩ": 7192,
      "Ġorigin": 7193,
      "ND": 7194,
      "ï¼īãĢĤĊ": 7195,
      "Ġsupply": 7196,
      "è¯Ĺäºº": 7197,
      "çī©ä½ĵ": 7198,
      "PD": 7199,
      "åĪĨéħį": 7200,
      "Ġfast": 7201,
      "Ġconcepts": 7202,
      "omy": 7203,
      "è¿Ĳè¾ĵ": 7204,
      "èĢĥçłĶ": 7205,
      "ula": 7206,
      "ç°": 7207,
      ",ä¸Ģä¸ª": 7208,
      "âĶ": 7209,
      "Ġbox": 7210,
      "çļĦæĥħåĨµ": 7211,
      "æ±Łèĭı": 7212,
      "æĹ¥æľŁ": 7213,
      "é¦Ļæ¸¯": 7214,
      "/s": 7215,
      "è§Ĥå¿µ": 7216,
      "xi": 7217,
      "Ġoil": 7218,
      "è½¬ç§»": 7219,
      "yth": 7220,
      "ened": 7221,
      "çĶ·äºº": 7222,
      "Ġspeak": 7223,
      "åĵģç§į": 7224,
      "æ¦ľ": 7225,
      "Ġbring": 7226,
      "å¤įåĪ¶": 7227,
      "èĬ½": 7228,
      "ç³Ĭ": 7229,
      "åİŁæĸĻ": 7230,
      "åĵªéĩĮ": 7231,
      "å¸¦çĿĢ": 7232,
      "çŀ¬": 7233,
      "è¡¨æ¼Ķ": 7234,
      "bit": 7235,
      "è®©ä½ł": 7236,
      "Ġap": 7237,
      "ä¸Ńæĸĩ": 7238,
      "Ġann": 7239,
      "Ġ<": 7240,
      "De": 7241,
      "Ġcharacteristics": 7242,
      "æ¶ĪåĮĸ": 7243,
      "Ġdecision": 7244,
      "Ġexisting": 7245,
      "Ġtooth": 7246,
      "çº¿çļĦ": 7247,
      "Ġop": 7248,
      "Ġindustr": 7249,
      "éĩĬæĶ¾": 7250,
      "å¹½": 7251,
      "åį§": 7252,
      "Ø±": 7253,
      "åĽĽå·Ŀ": 7254,
      "Ġimmedi": 7255,
      "ML": 7256,
      "åĬ²": 7257,
      "Ġserious": 7258,
      "Ġfactor": 7259,
      "Ġincluded": 7260,
      ",è¿ĺæĺ¯": 7261,
      "Ġgoal": 7262,
      "å¹³éĿ¢": 7263,
      "æ¤Ĵ": 7264,
      "ĠRep": 7265,
      "ç»ĵè®º": 7266,
      "Ġrapid": 7267,
      "èĩŃ": 7268,
      "Ġdou": 7269,
      "Ġsynt": 7270,
      "æłĩé¢ĺ": 7271,
      "å¹´åº¦": 7272,
      "Ġrelevant": 7273,
      "rown": 7274,
      "Ġfit": 7275,
      "book": 7276,
      "æĿĥåĪ©": 7277,
      "So": 7278,
      "ĠData": 7279,
      "ocks": 7280,
      "Ġheav": 7281,
      "like": 7282,
      "æĹ¶åĪ»": 7283,
      "å¼ºçĥĪ": 7284,
      "ç¬¦åı·": 7285,
      "çĥ¤": 7286,
      "éħµ": 7287,
      "ç½²": 7288,
      "åĨħå¿ĥ": 7289,
      "Ġrules": 7290,
      "åŃŁ": 7291,
      "åĲ¨": 7292,
      "å®¤åĨħ": 7293,
      "Ġleading": 7294,
      "ley": 7295,
      "Ġcapt": 7296,
      "ç»Ļä½ł": 7297,
      "Ġdistribution": 7298,
      "æ§½": 7299,
      "èĭ¯": 7300,
      "å±ķå¼Ģ": 7301,
      "ĠDevelop": 7302,
      "Ġessay": 7303,
      "åİŁåĪĽ": 7304,
      "è®¿éĹ®": 7305,
      "æĪĺäºī": 7306,
      "Ġlocation": 7307,
      "æįŁå¤±": 7308,
      "Ġtask": 7309,
      "Ġrot": 7310,
      "åľŁåľ°": 7311,
      "Ġabsor": 7312,
      "olar": 7313,
      "Ġscreen": 7314,
      "å°Ĭéĩį": 7315,
      "æĲľç´¢": 7316,
      "èĽĭçĻ½è´¨": 7317,
      "èĢĮä¸į": 7318,
      "è¡Ģåİĭ": 7319,
      "ï¼Įè¯¥": 7320,
      "ãĢĤä¾ĭå¦Ĥ": 7321,
      "ĠTrans": 7322,
      "èµ¤": 7323,
      "å¤§äºİ": 7324,
      "Ġinform": 7325,
      "ternal": 7326,
      "çļĦä¸ľè¥¿": 7327,
      "\\r": 7328,
      "åĲĦç±»": 7329,
      "ging": 7330,
      "Ġexposure": 7331,
      "ä¿ĿåŃĺ": 7332,
      "bol": 7333,
      "å´ĩ": 7334,
      "gn": 7335,
      "é«ĺæķĪ": 7336,
      "ched": 7337,
      "éĹ´çļĦ": 7338,
      "Ġice": 7339,
      "æĳ¸": 7340,
      "hic": 7341,
      "çłĶç©¶çĶŁ": 7342,
      "Ġmathemat": 7343,
      "Ġprocessing": 7344,
      "çģĮ": 7345,
      "Ġpriv": 7346,
      "ounter": 7347,
      "âĢĻll": 7348,
      "Ġliqu": 7349,
      ",è¿Ļæł·": 7350,
      "ä»ĸäºº": 7351,
      "éķ¿åº¦": 7352,
      "äººç¾¤": 7353,
      "Ġhot": 7354,
      "Ġnight": 7355,
      "ä¸ĬäºĨ": 7356,
      "å¹³æĸ¹": 7357,
      "ãĢĭĊĊ": 7358,
      "è°¨": 7359,
      "Ġcou": 7360,
      ",æĪĸèĢħ": 7361,
      "ĠGe": 7362,
      "Ġnucle": 7363,
      "å¯¹è¯Ŀ": 7364,
      "æĽ°": 7365,
      "Ġcosts": 7366,
      "å°±ä¸ļ": 7367,
      "equ": 7368,
      "æĿŃ": 7369,
      "åĬłçĥŃ": 7370,
      "éĤ¦": 7371,
      "åįģå¹´": 7372,
      "æŃ£ç¡®çļĦ": 7373,
      "ä¸Ĭæĸ¹": 7374,
      "Ġclick": 7375,
      "èĤĸ": 7376,
      "Ġattempt": 7377,
      "Ġrob": 7378,
      "èĭ¹": 7379,
      "ä¼į": 7380,
      "±ä¹Ĳ": 7381,
      "ãĢģä¸Ń": 7382,
      "æĺ¯ä¸ª": 7383,
      "å±Ģéĥ¨": 7384,
      "ä»¥åīį": 7385,
      "Ġmuscle": 7386,
      "OT": 7387,
      "é«ĺæł¡": 7388,
      "å¯º": 7389,
      "Ġmom": 7390,
      "Ġoptions": 7391,
      "osition": 7392,
      "æ°´ä¸Ń": 7393,
      "ĠEd": 7394,
      "ãĢĭ(": 7395,
      "abilities": 7396,
      "åµ": 7397,
      "ework": 7398,
      "Ġgetting": 7399,
      "æĺ¯å¯¹": 7400,
      "ÂłĠÂłĠÂłĠÂłĠ": 7401,
      "å®¢è§Ĥ": 7402,
      "çĽĳçĿ£": 7403,
      "Ġresistance": 7404,
      "ĠOf": 7405,
      "æ¶²ä½ĵ": 7406,
      "å¼ºåĮĸ": 7407,
      "æľ¬äºº": 7408,
      "rage": 7409,
      "ä¸ĸçķĮä¸Ĭ": 7410,
      "rig": 7411,
      "ï¼Įä¹Łæĺ¯": 7412,
      "ï¼ĮæĹł": 7413,
      "odies": 7414,
      "ously": 7415,
      "æĽ´å¥½çļĦ": 7416,
      "çĥĤ": 7417,
      "Ġstim": 7418,
      "Ġrecommend": 7419,
      "åĨľæĿĳ": 7420,
      "Ġexperiences": 7421,
      "æĤł": 7422,
      "li": 7423,
      "Ġfish": 7424,
      "ä½İäºİ": 7425,
      "Ġsolutions": 7426,
      "å¹³æĹ¶": 7427,
      "éĢļä¿¡": 7428,
      "çļĦæĥħåĨµä¸ĭ": 7429,
      "ç»´æĮģ": 7430,
      "çļĦæķ°æį®": 7431,
      "è®²è§£": 7432,
      "çĸ«èĭĹ": 7433,
      "Ġletter": 7434,
      "ä¸įèī¯": 7435,
      "ç¾½": 7436,
      "å§ĭç»Ī": 7437,
      "Ġlo": 7438,
      "çŁĽçĽ¾": 7439,
      "çŃĽ": 7440,
      "è¯¦æĥħ": 7441,
      "éĥŃ": 7442,
      "stract": 7443,
      "Ġequipment": 7444,
      "æĥ³åĪ°": 7445,
      "ube": 7446,
      "oes": 7447,
      "abetes": 7448,
      "Ġvision": 7449,
      "æįŁä¼¤": 7450,
      "é¸¡èĽĭ": 7451,
      "æīĢè¿°": 7452,
      "å¤įåĲĪ": 7453,
      "ception": 7454,
      "åħ¬å¼ı": 7455,
      "PA": 7456,
      "Ġschools": 7457,
      "å¤ĸçļĦ": 7458,
      "Un": 7459,
      "inct": 7460,
      "åĩºåıĳ": 7461,
      "ä¸Ģä½į": 7462,
      "gery": 7463,
      "ä¼¤å®³": 7464,
      "å¼Ħ": 7465,
      "åĩ¯": 7466,
      "ĠBrit": 7467,
      "Ġidentified": 7468,
      ",çĶ±": 7469,
      "Sh": 7470,
      "Ġdescribed": 7471,
      "æ»¨": 7472,
      "æķĮ": 7473,
      "è£ħé¥°": 7474,
      "Ġliterature": 7475,
      "çī¢": 7476,
      "Ġlabor": 7477,
      "cks": 7478,
      "Ġcompar": 7479,
      "ãĢĤâĢĿĊ": 7480,
      ",éľĢè¦ģ": 7481,
      "äºĭæķħ": 7482,
      "ching": 7483,
      "åĲ¦åĪĻ": 7484,
      "åıĳæĺİ": 7485,
      "èµ¢": 7486,
      "ĠMost": 7487,
      "èģĮä½į": 7488,
      "ï¼ĮåºĶ": 7489,
      "æ¢¦æĥ³": 7490,
      "ï¼Įèĥ½": 7491,
      "ä»ĬæĹ¥": 7492,
      "ç¬¬äºĶ": 7493,
      "åģļçļĦ": 7494,
      "ĠNot": 7495,
      "off": 7496,
      "çĸ²": 7497,
      "åĦ¿åŃĲ": 7498,
      "Ġtrees": 7499,
      "ãĢģæ°´": 7500,
      "ĠÙ": 7501,
      "è½¬è½½": 7502,
      "Ġmouth": 7503,
      "cont": 7504,
      "æĹº": 7505,
      "æĭĨ": 7506,
      "ä¾Ŀèµĸ": 7507,
      "å¾Īæľī": 7508,
      "iet": 7509,
      "ç»´çĶŁç´ł": 7510,
      "tings": 7511,
      "new": 7512,
      "ĠAI": 7513,
      "æŁ¥è¯¢": 7514,
      "Ġsus": 7515,
      "ç½ĳä¸Ĭ": 7516,
      "Ġpolicy": 7517,
      "Ġperformed": 7518,
      "ãĢģĊ": 7519,
      "Ġanc": 7520,
      "ĠSim": 7521,
      "éĢļéģĵ": 7522,
      "dom": 7523,
      "è¾©": 7524,
      "Ġpoor": 7525,
      "pec": 7526,
      "Ġoptim": 7527,
      "ĠOther": 7528,
      "é£ĺ": 7529,
      "Ġconvers": 7530,
      "éĿ¢ä¸´": 7531,
      "ä¼ļè®¡": 7532,
      "æ³ķéĻ¢": 7533,
      "çĽ´æĴŃ": 7534,
      "èĭ¹æŀľ": 7535,
      "å½ĵåīį": 7536,
      "èĩªè¡Į": 7537,
      "Ġphen": 7538,
      "ogle": 7539,
      "Ġgoals": 7540,
      "ç±»çļĦ": 7541,
      "æĬ¥éģĵ": 7542,
      "iter": 7543,
      "å®¶äºº": 7544,
      "Ġ>": 7545,
      "Ġmusic": 7546,
      "éªĳ": 7547,
      "çİĽ": 7548,
      "ĠRead": 7549,
      "åĸ»": 7550,
      "ç»Īäºİ": 7551,
      "Ġdistance": 7552,
      "Ġcentral": 7553,
      "Ġresource": 7554,
      "Ġcontinue": 7555,
      "ĠShe": 7556,
      "riculum": 7557,
      "Ġlives": 7558,
      "æİ¨å¹¿": 7559,
      "Ġyourself": 7560,
      "Ġveget": 7561,
      "ava": 7562,
      "ottom": 7563,
      "ç²®": 7564,
      "ĠãĢĬ": 7565,
      "Ġsecurity": 7566,
      "æł¼å¼ı": 7567,
      "ç½Ĺæĸ¯": 7568,
      "èĬ¯çīĩ": 7569,
      "åı¬": 7570,
      "Ġtalk": 7571,
      "é£İæĻ¯": 7572,
      "ä¸īè§Ĵ": 7573,
      "DA": 7574,
      "åį°åº¦": 7575,
      "åı¦ä¸Ģä¸ª": 7576,
      "ä¸ĭåİ»": 7577,
      "Ġsituation": 7578,
      ",åħ¨": 7579,
      "æİĺ": 7580,
      "çļĦåıĺåĮĸ": 7581,
      "Ġgrowing": 7582,
      "Ġreaction": 7583,
      "Ġbab": 7584,
      "éģ¥": 7585,
      "æ£®æŀĹ": 7586,
      "éĥ½è¦ģ": 7587,
      ",è¢«": 7588,
      "æĶ¶èİ·": 7589,
      "Ġorganization": 7590,
      "è¸ª": 7591,
      "ä¼ļåľ¨": 7592,
      "Ġla": 7593,
      "Ġvacc": 7594,
      "ç´łè´¨": 7595,
      "comes": 7596,
      "Ġstay": 7597,
      "èĶ¬": 7598,
      "æ¡ĳ": 7599,
      "Ġreach": 7600,
      "è¾Ĳå°Ħ": 7601,
      "ĠEducation": 7602,
      "uments": 7603,
      "Ġbalance": 7604,
      "å¹¶æ²¡æľī": 7605,
      "Ġbelieve": 7606,
      "åħĪè¿Ľ": 7607,
      "Ġinternal": 7608,
      "ĠLearning": 7609,
      "æĿĤå¿Ĺ": 7610,
      "çľŁæŃ£çļĦ": 7611,
      "Ġones": 7612,
      "æ¸ł": 7613,
      "ĠChild": 7614,
      "ä¸Ģæł·çļĦ": 7615,
      "Ġcommonly": 7616,
      "æİ¢ç©¶": 7617,
      "å¦Ĩ": 7618,
      "çļĦåĲĮæĹ¶": 7619,
      "Ġapply": 7620,
      "ricult": 7621,
      "MA": 7622,
      "è¾ĥå¤§": 7623,
      "æķıæĦŁ": 7624,
      ",è¯¥": 7625,
      "oman": 7626,
      "åĽ¾å½¢": 7627,
      "Ġadults": 7628,
      "ĠÐ": 7629,
      "éħ¯": 7630,
      "ingu": 7631,
      "åıĳéĢģ": 7632,
      "Ġplanet": 7633,
      "å¹¶ä¸Ķ": 7634,
      "Ġauthors": 7635,
      "Ġcompan": 7636,
      "åı¯éĿł": 7637,
      "Ġmeasures": 7638,
      "Ġtransfer": 7639,
      "Ġadded": 7640,
      "çīµ": 7641,
      "uman": 7642,
      "ãĢĤçĶ±äºİ": 7643,
      "å±ķè§Ī": 7644,
      "èĤ¢": 7645,
      "ä½©": 7646,
      "æĻĴ": 7647,
      "Ġguide": 7648,
      "çī¹å®ļ": 7649,
      "care": 7650,
      "Ġenter": 7651,
      "sect": 7652,
      "pective": 7653,
      "æĶ¯æĴĳ": 7654,
      "èµł": 7655,
      "æ··åĩĿ": 7656,
      "ocol": 7657,
      "Ġmath": 7658,
      "è¡£æľį": 7659,
      "çĸ¼çĹĽ": 7660,
      "oly": 7661,
      "è¯ģæį®": 7662,
      "ĠThen": 7663,
      "ï¼Įä¸Ķ": 7664,
      "work": 7665,
      "gest": 7666,
      "Ġobserved": 7667,
      "/or": 7668,
      "Ġthreat": 7669,
      "çļĦçĥŃ": 7670,
      "orage": 7671,
      "Ġcollabor": 7672,
      "æµģè¡Į": 7673,
      "æĽ¹": 7674,
      "çĨĶ": 7675,
      "å½ĵåľ°": 7676,
      "ĠÎ": 7677,
      "oe": 7678,
      "è¯ŀ": 7679,
      "Ġadjust": 7680,
      "åį°è±¡": 7681,
      "iar": 7682,
      "åįĹäº¬": 7683,
      "ivil": 7684,
      "Ġgives": 7685,
      "æĬĬæı¡": 7686,
      "wise": 7687,
      "å®¶éĩĮ": 7688,
      "ä½ĵåĨħ": 7689,
      "!!": 7690,
      "ä¸ĵéĹ¨": 7691,
      "âĢ¦âĢ¦ĊĊ": 7692,
      "åĽŀåĪ°": 7693,
      "è§Ĥä¼Ĺ": 7694,
      "Ġformat": 7695,
      "Ġeducational": 7696,
      ",å¯¹äºİ": 7697,
      ",äºº": 7698,
      "Ġcultural": 7699,
      "åĬłéĢŁ": 7700,
      "ĠãĢģ": 7701,
      "æľĢå¥½çļĦ": 7702,
      "ç§įæ¤į": 7703,
      "çĺ¦": 7704,
      "PI": 7705,
      "ä¸ªæĢ§": 7706,
      "çĪ½": 7707,
      "Ġcolle": 7708,
      "çŁ¥è¯ĨçĤ¹": 7709,
      "åľ¨è¿Ļ": 7710,
      "âĹĨ": 7711,
      "è¡Ĺéģĵ": 7712,
      "å°ıç»Ħ": 7713,
      "æ¸©æļĸ": 7714,
      "å¸ĪèĮĥ": 7715,
      "Ġï¼Ī": 7716,
      "Ġdirection": 7717,
      "å±ŀæĢ§": 7718,
      "æĺ¯ä¸įæĺ¯": 7719,
      "å®¡æł¸": 7720,
      "åģļæ³ķ": 7721,
      "coh": 7722,
      "çĶŁçĲĨ": 7723,
      "ĠEach": 7724,
      "Ġfinal": 7725,
      "æīĢéľĢ": 7726,
      "æľŁçļĦ": 7727,
      "éĢłåŀĭ": 7728,
      "éļ¾åº¦": 7729,
      "ï¼Įæķħ": 7730,
      "/æľĪ": 7731,
      "çº½": 7732,
      "Ġdiv": 7733,
      "iles": 7734,
      "èĩĤ": 7735,
      "Ġaffected": 7736,
      "Ġinnov": 7737,
      "èī¯å¥½": 7738,
      "Ġupd": 7739,
      "åĴ³": 7740,
      "Ġhands": 7741,
      "gram": 7742,
      "ĠMany": 7743,
      "Ġthird": 7744,
      "ä¼ĳæģ¯": 7745,
      "Ġdark": 7746,
      "ãĢĤä½ł": 7747,
      "å®ŀçĶ¨": 7748,
      "çĶµç£ģ": 7749,
      "plications": 7750,
      "Ġpul": 7751,
      "Ġefficiency": 7752,
      "Ġhost": 7753,
      "åİŁå§ĭ": 7754,
      "ä½ĵä¼ļ": 7755,
      "ĠStudents": 7756,
      "ï¼ĮĊ": 7757,
      "å¸¸å¸¸": 7758,
      "Ġrates": 7759,
      "å¤©ä¸ĭ": 7760,
      "ãİ": 7761,
      "Ġtherm": 7762,
      "ä½ĵç§¯": 7763,
      "èº«ä¸Ĭ": 7764,
      "ĠAust": 7765,
      "ades": 7766,
      "bl": 7767,
      "Ġextra": 7768,
      "æĥĳ": 7769,
      "Ġreasons": 7770,
      "ä¿®å¤į": 7771,
      "å¼ĢåĲ¯": 7772,
      "Ġjoint": 7773,
      "æŁ´": 7774,
      "-e": 7775,
      "Ġquite": 7776,
      "Ġpresence": 7777,
      "åħĦ": 7778,
      "ached": 7779,
      "Ġbehind": 7780,
      "ero": 7781,
      "Ġprotection": 7782,
      "Con": 7783,
      "âĢĶâĢĶâĢĶâĢĶ": 7784,
      "ä¸ªä½ĵ": 7785,
      ")åĴĮ": 7786,
      "Ġclinical": 7787,
      "Ġbad": 7788,
      "æĪĲçļĦ": 7789,
      "åķ¡": 7790,
      "encies": 7791,
      "è¯´æ³ķ": 7792,
      "å°ıåĮº": 7793,
      "Ġbackground": 7794,
      "Ġforest": 7795,
      "Ġtransport": 7796,
      "æ²Ī": 7797,
      "ĠChina": 7798,
      "è´¢åĬ¡": 7799,
      "Ġcore": 7800,
      "åħ¬å¸ĥ": 7801,
      "Ġinstruct": 7802,
      "Ġopportunities": 7803,
      "Res": 7804,
      "Ġconsequ": 7805,
      "æĶ¶çĽĬ": 7806,
      ",åĴĮ": 7807,
      "éĹ¹": 7808,
      "å¿Į": 7809,
      "èĦĬ": 7810,
      "Ġbit": 7811,
      "ä¸įå¤Ł": 7812,
      "vention": 7813,
      "ese": 7814,
      "Ġtechnique": 7815,
      "Ġfluid": 7816,
      "ä¾ĭåŃĲ": 7817,
      "One": 7818,
      "Ġgenetic": 7819,
      ",ä¸Ķ": 7820,
      "SO": 7821,
      "å¹²çĩ¥": 7822,
      "px": 7823,
      "Ġsmaller": 7824,
      "Ġimmune": 7825,
      "æĹ¶åħī": 7826,
      "Ġroom": 7827,
      "äº¤æį¢": 7828,
      "çĽ¸åºĶçļĦ": 7829,
      "åıĺéĩı": 7830,
      "Ġbooks": 7831,
      ",ä¸įè¦ģ": 7832,
      ".)": 7833,
      "èĩªä¿¡": 7834,
      "RI": 7835,
      "ding": 7836,
      "æľīçĤ¹": 7837,
      "æ¤İ": 7838,
      "ç¬Ķè®°": 7839,
      "ä¼ĺæĥł": 7840,
      "é»İ": 7841,
      "åı¯ä»¥éĢļè¿ĩ": 7842,
      "Ġmetal": 7843,
      "äºĭé¡¹": 7844,
      "ilos": 7845,
      "Ġfields": 7846,
      "å¡ĳæĸĻ": 7847,
      "Ġplatform": 7848,
      "ests": 7849,
      "Ġsignificantly": 7850,
      "ä¸Ĭå¸Ĥ": 7851,
      "Ġcomprehens": 7852,
      "çŃ¹": 7853,
      "Ġsolar": 7854,
      "æī«çłģ": 7855,
      "Ġfoot": 7856,
      ",ä¸Ń": 7857,
      "Ġrelationships": 7858,
      "Ġassum": 7859,
      "æī©å±ķ": 7860,
      "çķª": 7861,
      "çĶµåĬ¨": 7862,
      "ĠMy": 7863,
      "åįĥä¸ĩ": 7864,
      "].": 7865,
      "erences": 7866,
      "ceed": 7867,
      "Ġegg": 7868,
      "ls": 7869,
      "å¯ĵ": 7870,
      "Ġsn": 7871,
      "çļĦè®¾è®¡": 7872,
      "æ¯ķç«Ł": 7873,
      "Ġfuel": 7874,
      "ĠState": 7875,
      "Ġinternational": 7876,
      "åģļäºĨ": 7877,
      "Ġconstruct": 7878,
      "äºĭçī©": 7879,
      "avor": 7880,
      "kg": 7881,
      "ĠÂ·": 7882,
      "çĤŃ": 7883,
      "Ġvolume": 7884,
      "Ġnutri": 7885,
      "ha": 7886,
      "èŁ": 7887,
      "çķĻä¸ĭ": 7888,
      "å¤ļæ¬¡": 7889,
      "æİ¢è®¨": 7890,
      "more": 7891,
      "Ġdescribe": 7892,
      "Ġcapacity": 7893,
      "éĿĴæĺ¥": 7894,
      "Ġfeet": 7895,
      "Ġerror": 7896,
      "itle": 7897,
      "ä¹¦çĶ»": 7898,
      "ãĢĤå¯¹äºİ": 7899,
      "ilit": 7900,
      "åĵŃ": 7901,
      "æħİ": 7902,
      "ognitive": 7903,
      "Ġinvolves": 7904,
      "æīĵåį°": 7905,
      "itect": 7906,
      "ellow": 7907,
      "èĢĢ": 7908,
      "ference": 7909,
      "è¯įæ±ĩ": 7910,
      "Ġcommit": 7911,
      "atically": 7912,
      "å¤±è´¥": 7913,
      "å¤ªå¤ļ": 7914,
      "-le": 7915,
      "Ġcombination": 7916,
      "Ġexpected": 7917,
      "Ġpresented": 7918,
      "åįĩçº§": 7919,
      "ses": 7920,
      "ç¼ĸç¨ĭ": 7921,
      "Ġbound": 7922,
      "Ġformation": 7923,
      "Ġitems": 7924,
      "çĸĨ": 7925,
      "ç¬Ķè¯ķ": 7926,
      "ino": 7927,
      "å¿ĥèĦı": 7928,
      "æµĭå®ļ": 7929,
      "Ġtransform": 7930,
      "Ġapprox": 7931,
      "Ġreduced": 7932,
      "Ġhor": 7933,
      "çĮľ": 7934,
      "Ġcycle": 7935,
      "--------------------------------": 7936,
      "éĢĶå¾Ħ": 7937,
      "ĠFin": 7938,
      "Ġwild": 7939,
      "Ġdate": 7940,
      "ï¼Įæ¯Ķå¦Ĥ": 7941,
      "Ġattack": 7942,
      "èĬĤå¥ı": 7943,
      "è®©æĪĳ": 7944,
      "tage": 7945,
      "æ¦Ĥçİĩ": 7946,
      "Ġsigns": 7947,
      "è¢Ń": 7948,
      "æľīè¶£": 7949,
      "ĠGerm": 7950,
      "åİŁæĿ¥": 7951,
      "ä¿ĿçķĻ": 7952,
      "Ġhol": 7953,
      "Ġexec": 7954,
      "Ġpen": 7955,
      "orders": 7956,
      "ç¢Ĺ": 7957,
      "ä¸¾åĬŀ": 7958,
      "Ġresulting": 7959,
      "rs": 7960,
      "çŃīçº§": 7961,
      "æĭĸ": 7962,
      "Ġreference": 7963,
      "èĢĮä¸Ķ": 7964,
      "Ġrelig": 7965,
      "ervation": 7966,
      "ĠMar": 7967,
      "æĹħè¡Į": 7968,
      "ĠAmerica": 7969,
      "ĠDis": 7970,
      "æĢ§æł¼": 7971,
      "ï¼ĮèĢĮæĺ¯": 7972,
      "æľºåħ³": 7973,
      "å¹²åĩĢ": 7974,
      "å¥ī": 7975,
      "ĠUsing": 7976,
      "Ġleaves": 7977,
      "Ġparticles": 7978,
      "rome": 7979,
      "Ġcolon": 7980,
      "æŁĲç§į": 7981,
      "umb": 7982,
      "head": 7983,
      "ĠReg": 7984,
      "CH": 7985,
      ",ç»Ļ": 7986,
      "Ġwebsite": 7987,
      "å·¥ä½ľçļĦ": 7988,
      "å¢ĵ": 7989,
      "ï¼Įè¿Ļç§į": 7990,
      "QL": 7991,
      "alking": 7992,
      "Ġbeyond": 7993,
      "joy": 7994,
      "Ġstrategy": 7995,
      "å¼Ģåħ³": 7996,
      "enge": 7997,
      "çģµæ´»": 7998,
      "Ġrespond": 7999,
      "uff": 8000,
      "æĽ²çº¿": 8001,
      "ä»Ģä¹Īæĺ¯": 8002,
      "æ³³": 8003,
      "è¯¾é¢ĺ": 8004,
      "Be": 8005,
      "Ġdang": 8006,
      "å¤§èĦĳ": 8007,
      "Ġled": 8008,
      "Ġfindings": 8009,
      "reed": 8010,
      "å¹¿å·ŀ": 8011,
      "âħ": 8012,
      "çĩĥçĥ§": 8013,
      "Ġaspects": 8014,
      "åºĶå¯¹": 8015,
      "æľīæķĪçļĦ": 8016,
      "ãİ¡": 8017,
      "Ġtrig": 8018,
      "Ġtasks": 8019,
      "çĭ¬çī¹çļĦ": 8020,
      "Ġqual": 8021,
      "æĭ³": 8022,
      "Ġoffers": 8023,
      "Ġacademic": 8024,
      ",åħ¶å®ŀ": 8025,
      "CS": 8026,
      "Ġdemand": 8027,
      "ãĢĤä»ĸä»¬": 8028,
      "çĬ¯ç½ª": 8029,
      "ç½©": 8030,
      "éĶĪ": 8031,
      "åįıè°ĥ": 8032,
      "rong": 8033,
      "ï¼īçļĦ": 8034,
      "ĠGl": 8035,
      "Ġacqu": 8036,
      "å¥½äºĨ": 8037,
      "Ġdrug": 8038,
      "ĠInter": 8039,
      "ĠAre": 8040,
      "çĨĬ": 8041,
      "å§»": 8042,
      "éĻµ": 8043,
      "èĢģäºº": 8044,
      "éľī": 8045,
      "name": 8046,
      "åĮĸåĲĪçī©": 8047,
      "èħĲèļĢ": 8048,
      "Ġdegree": 8049,
      "ĠSm": 8050,
      "Ġinstance": 8051,
      "Ġroot": 8052,
      "Ġinstru": 8053,
      "åĲĮæŃ¥": 8054,
      "ãĢĤè¿Ļä¸ª": 8055,
      "å¾Īå®¹æĺĵ": 8056,
      ",å¤§å®¶": 8057,
      "Ġvehic": 8058,
      "åĴĸåķ¡": 8059,
      "HE": 8060,
      "å¸ĥå±Ģ": 8061,
      "Ġmob": 8062,
      "ä¹¦åĨĻ": 8063,
      "ä½ĵæ£Ģ": 8064,
      "Ġnote": 8065,
      "å¿ĥéĩĮ": 8066,
      "iable": 8067,
      "Ġdetails": 8068,
      "åĩºåı£": 8069,
      "ä¹Łå°±æĺ¯": 8070,
      "Ġsugar": 8071,
      "ĠAlthough": 8072,
      "zz": 8073,
      "è¯¾æĸĩ": 8074,
      "ĠFe": 8075,
      "æ³ķçļĦ": 8076,
      "è¿ĶåĽŀ": 8077,
      "ION": 8078,
      "å¾Īå¿«": 8079,
      "æŁľ": 8080,
      "Ġactions": 8081,
      "èĲ½å®ŀ": 8082,
      "Ġnan": 8083,
      "Ġvary": 8084,
      "Ġrare": 8085,
      "è¿ĺè¦ģ": 8086,
      "Ġstandards": 8087,
      "Ġfundam": 8088,
      "èĸªèµĦ": 8089,
      "åĪĽæĦı": 8090,
      "Ġweak": 8091,
      "å¯¹åºĶ": 8092,
      "å¸¦æĿ¥çļĦ": 8093,
      "èĩ³äºİ": 8094,
      "CR": 8095,
      "é»ĳèī²": 8096,
      "char": 8097,
      "å¾¡": 8098,
      "Ġfront": 8099,
      "phas": 8100,
      "Ġsem": 8101,
      "çļĦç»ĵæŀľ": 8102,
      "å¥³åĦ¿": 8103,
      "åĩĮ": 8104,
      "ä»¶äºĭ": 8105,
      "åĴĮè°Ĳ": 8106,
      "å¤ĸéĥ¨": 8107,
      "çĽ®å½ķ": 8108,
      "Ġsix": 8109,
      "Ġbeginning": 8110,
      "çĲĨçĶ±": 8111,
      "Â¥": 8112,
      "Ġstrength": 8113,
      "eter": 8114,
      "These": 8115,
      "ä½¿å¾Ĺ": 8116,
      "æĶ¹è¿Ľ": 8117,
      "Ġapproaches": 8118,
      "%ãĢĤ": 8119,
      "Ġcred": 8120,
      "æī¶": 8121,
      "åģ·": 8122,
      "rees": 8123,
      "uk": 8124,
      "cohol": 8125,
      "Ġrand": 8126,
      "å°±è¦ģ": 8127,
      "éŃħ": 8128,
      "Ġconcl": 8129,
      "äº¿åħĥ": 8130,
      "Ġrepe": 8131,
      "ä¸ĢåĲį": 8132,
      "åĪĨæ³Į": 8133,
      "æı´": 8134,
      "ãĢģå°ı": 8135,
      "roup": 8136,
      "ä¼łç»ŁçļĦ": 8137,
      "çĪ¸çĪ¸": 8138,
      "Ġvirt": 8139,
      "åıįé¦Ī": 8140,
      "åŀĥ": 8141,
      "åľ¾": 8142,
      ",ä¸¤": 8143,
      "å²Ń": 8144,
      "Ġplanning": 8145,
      "ä¸ŃåĽ½çļĦ": 8146,
      "éĩĩè´Ń": 8147,
      "Ġsurround": 8148,
      "é¥¼": 8149,
      "Ġcrucial": 8150,
      "æĹ¥åŃĲ": 8151,
      "rid": 8152,
      "Ġcarry": 8153,
      "ï¼ĮéľĢè¦ģ": 8154,
      "æĸ°åĨł": 8155,
      "ä»ªåĻ¨": 8156,
      "è·¯ä¸Ĭ": 8157,
      "å¡ĺ": 8158,
      "Ġaccom": 8159,
      "DNA": 8160,
      "ä¸īç§į": 8161,
      "ç¨»": 8162,
      "çŃīå¾ħ": 8163,
      "å°Ĩåħ¶": 8164,
      "é©¬åħĭ": 8165,
      "Ar": 8166,
      "Ġtechnologies": 8167,
      "åŀĥåľ¾": 8168,
      "Ġreported": 8169,
      "åĽ´ç»ķ": 8170,
      "Ġvalid": 8171,
      "æĹĭè½¬": 8172,
      "çļĦä¿¡æģ¯": 8173,
      "He": 8174,
      "æıĲäº¤": 8175,
      "äºŃ": 8176,
      "hyd": 8177,
      "èħĬ": 8178,
      "ĠFrom": 8179,
      "edu": 8180,
      "Ġmut": 8181,
      "ï¼į": 8182,
      "çĶŁåĬ¨": 8183,
      "ĠAg": 8184,
      "Ġresponsible": 8185,
      "å¤§æ°Ķ": 8186,
      "Ġsetting": 8187,
      "-Ċ": 8188,
      "æł·åĵģ": 8189,
      ",è¿Ļæĺ¯": 8190,
      "Ġchann": 8191,
      "åķĨåĬ¡": 8192,
      "ifically": 8193,
      "Ġrandom": 8194,
      "è¹Ī": 8195,
      "å¸¸çĶ¨": 8196,
      "ĠWar": 8197,
      "Ġaff": 8198,
      ",çİ°åľ¨": 8199,
      "ä¸įçŁ¥": 8200,
      "Ġeffectively": 8201,
      "Ġlesson": 8202,
      "Ġmis": 8203,
      "Ġproperty": 8204,
      "Ġhabit": 8205,
      "Ġcorresp": 8206,
      "è¦ģç´ł": 8207,
      "é¦¨": 8208,
      "ç§įç±»": 8209,
      "æ£ī": 8210,
      "æľ´": 8211,
      "çļĦä¸»": 8212,
      "ï¼Įä¼ļ": 8213,
      "åĬĽåĴĮ": 8214,
      "é¦ĸæ¬¡": 8215,
      "éħ±": 8216,
      "ying": 8217,
      "ä¸Ģä»½": 8218,
      "wo": 8219,
      "éħ°": 8220,
      "inese": 8221,
      "é£ŁçĶ¨": 8222,
      ",é«ĺ": 8223,
      "è§£åĨ³æĸ¹æ¡Ī": 8224,
      "æ¿Ģåħī": 8225,
      "Ġmo": 8226,
      "Ġdatabase": 8227,
      "Ġradiation": 8228,
      "ç¿ł": 8229,
      "ç½ĳåıĭ": 8230,
      "iveness": 8231,
      "å¹²æī°": 8232,
      "Ġshap": 8233,
      "ç¾¤ä¼Ĺ": 8234,
      "ĠFirst": 8235,
      "ä¸¢": 8236,
      "æĬĽ": 8237,
      "æ¯ķä¸ļçĶŁ": 8238,
      "Ġdecisions": 8239,
      ",æĢ»": 8240,
      "PL": 8241,
      "ï¿": 8242,
      "Ġmoving": 8243,
      "èĥĸ": 8244,
      "ç¼Ĩ": 8245,
      "æĭħå¿ĥ": 8246,
      "Ġelse": 8247,
      "æıĲåĩºäºĨ": 8248,
      "Ġbreast": 8249,
      "åł¡": 8250,
      "éļıæľº": 8251,
      "ç§įåŃĲ": 8252,
      "Ġemail": 8253,
      "ï¼Įè¿Ļä¸ª": 8254,
      "æ¶Īè´¹èĢħ": 8255,
      "rec": 8256,
      "å¥½åĥı": 8257,
      "NO": 8258,
      "çļĦè¿ĩç¨ĭä¸Ń": 8259,
      "ä¸ĵæ³¨": 8260,
      "ï¼Įä¸»è¦ģ": 8261,
      "Ġkid": 8262,
      "Ġbecame": 8263,
      "è¿ĺåı¯ä»¥": 8264,
      "ban": 8265,
      "èĦĨ": 8266,
      "åĬŀçĲĨ": 8267,
      "æķ°çļĦ": 8268,
      "elt": 8269,
      "æ¯ıæĹ¥": 8270,
      "Ġcompletely": 8271,
      "æ··åĩĿåľŁ": 8272,
      "çĽ¸åºĶ": 8273,
      "èĤ¡ä»½": 8274,
      "èĳ±": 8275,
      "ä¹¦è®°": 8276,
      "ä¸Ľ": 8277,
      "Ġantib": 8278,
      "è¾ĥä¸º": 8279,
      "å¤§åŀĭ": 8280,
      "å°±ä¸į": 8281,
      "Ġimag": 8282,
      "é¬¼": 8283,
      "æķ°æį®åºĵ": 8284,
      "Ġflex": 8285,
      "æĬĢæľ¯çļĦ": 8286,
      "ç¤¾äº¤": 8287,
      "Ġfully": 8288,
      "çŃĶé¢ĺ": 8289,
      "å¤§å¸Ī": 8290,
      "Ġelectro": 8291,
      "Ġprojects": 8292,
      "éĤª": 8293,
      "ĠTherefore": 8294,
      "âĢĻve": 8295,
      "Ġbenefit": 8296,
      "Ġremember": 8297,
      "Ġleaders": 8298,
      "æº¶è§£": 8299,
      "çĿ¡çľł": 8300,
      "Ġtax": 8301,
      "æ°ĽåĽ´": 8302,
      "éĺĲ": 8303,
      "Ġë": 8304,
      "ç¼ĵè§£": 8305,
      "å¾Īå¥½çļĦ": 8306,
      "æĶ¾åħ¥": 8307,
      "ython": 8308,
      "roid": 8309,
      "æ»ŀ": 8310,
      "Ġoutcomes": 8311,
      "Ġremove": 8312,
      "aper": 8313,
      "åıĮæĸ¹": 8314,
      "CE": 8315,
      "èĪĴéĢĤ": 8316,
      "Ġisn": 8317,
      "æİ¥åı£": 8318,
      "çļĦåŃ¦çĶŁ": 8319,
      "åħ±äº«": 8320,
      "ä¼łæī¿": 8321,
      "Ġcommunities": 8322,
      "Ðµ": 8323,
      "Ġbirth": 8324,
      "åŃ¦åĳĺ": 8325,
      "Ġund": 8326,
      "æ¯ıå¹´": 8327,
      "èĭį": 8328,
      "Ġliquid": 8329,
      "Ġexperiment": 8330,
      "ĠProf": 8331,
      "èĬĤçĤ¹": 8332,
      "åĲ¸éĻĦ": 8333,
      "Ġequal": 8334,
      "çī©åĵģ": 8335,
      "åįĵ": 8336,
      "Ġestablish": 8337,
      "éľį": 8338,
      "ï¼ĮçĶļèĩ³": 8339,
      "æĢĴ": 8340,
      "ĠUnder": 8341,
      "æľºåĻ¨äºº": 8342,
      "å¼ıçļĦ": 8343,
      "ä½ľå®¶": 8344,
      "åį³ä½¿": 8345,
      "æŃĮæĽ²": 8346,
      "è°ĭ": 8347,
      "Ġproposed": 8348,
      "ãĢĤå¯¹": 8349,
      "https": 8350,
      "Ġchoice": 8351,
      "oice": 8352,
      "SA": 8353,
      "Ġformed": 8354,
      "éĿ¢åĲĳ": 8355,
      "æł¡åĽŃ": 8356,
      "åİĮ": 8357,
      "Ġhair": 8358,
      "iate": 8359,
      "urrent": 8360,
      "estern": 8361,
      "Ġprinciples": 8362,
      "ç´§å¼ł": 8363,
      "apers": 8364,
      "å®Įç¾İ": 8365,
      "éľľ": 8366,
      "Ġstatement": 8367,
      "åľ¨è¿ĻéĩĮ": 8368,
      "Ġreceive": 8369,
      "éĢĤçĶ¨": 8370,
      "è¿ĩæ»¤": 8371,
      "Ġnorm": 8372,
      ",åĲİ": 8373,
      "Ġsolid": 8374,
      "hest": 8375,
      "çĪ±å¥½": 8376,
      "Ġdrugs": 8377,
      "iences": 8378,
      "çº³ç±³": 8379,
      "onic": 8380,
      "éļĻ": 8381,
      "Ġsea": 8382,
      "åĩłå¹´": 8383,
      "ãĢĭçŃī": 8384,
      "åŃ£èĬĤ": 8385,
      "Ġhtt": 8386,
      "æĮĩåįĹ": 8387,
      "å¨ĥ": 8388,
      "Ġbul": 8389,
      "ãĢĤä¸į": 8390,
      "Ġexcess": 8391,
      "æĹ¶éĹ´çļĦ": 8392,
      "è£¤": 8393,
      "Ġcomponent": 8394,
      "Ġadop": 8395,
      "ä¼ĺçĤ¹": 8396,
      "ç¬¬åįģ": 8397,
      "Hz": 8398,
      "çļĦçī¹çĤ¹": 8399,
      "åģĩè®¾": 8400,
      "ä¼łè¾ĵ": 8401,
      "Ġconnected": 8402,
      "æµ©": 8403,
      "Ġevaluation": 8404,
      "Ġolder": 8405,
      "ç»µ": 8406,
      "æ¯ıæ¬¡": 8407,
      "å¼Ĺ": 8408,
      ",ä¸Ĭ": 8409,
      "ä¾µæĿĥ": 8410,
      "With": 8411,
      "Ġadminist": 8412,
      "amed": 8413,
      "ï¼ĮçĶ±äºİ": 8414,
      "åĳ³éģĵ": 8415,
      "Ġwood": 8416,
      "çī§": 8417,
      "æ³»": 8418,
      "ĠHigh": 8419,
      "äºĳåįĹ": 8420,
      "Ġä¸Ń": 8421,
      "umn": 8422,
      "çµ": 8423,
      "rim": 8424,
      "Ġsuccessful": 8425,
      "æĹłè®ºæĺ¯": 8426,
      "æĿ¡ä»¶ä¸ĭ": 8427,
      "çľŁé¢ĺ": 8428,
      "èĤĥ": 8429,
      "æī©å¤§": 8430,
      "Ġenhance": 8431,
      "oration": 8432,
      "ãĢĤæŃ¤": 8433,
      "ĠWrit": 8434,
      "æ¸ħæ´ģ": 8435,
      "ï¼Įæ²¡æľī": 8436,
      "å¥³åŃ©": 8437,
      "éŃı": 8438,
      "ĠLet": 8439,
      "åĵĪåĵĪ": 8440,
      "æľīå¤ļ": 8441,
      "IG": 8442,
      "ux": 8443,
      "Ġwaste": 8444,
      "æĮ¤": 8445,
      "rade": 8446,
      "ç´łåħ»": 8447,
      ",åĬł": 8448,
      "èĩ³ä»Ĭ": 8449,
      "Ġprobably": 8450,
      "VID": 8451,
      "ĠNorth": 8452,
      "æķ¦": 8453,
      "å¹¿åľº": 8454,
      "itors": 8455,
      "è¾°": 8456,
      "ä¸īå¹´": 8457,
      "çĵ£": 8458,
      "Ġelectrical": 8459,
      "Ġweather": 8460,
      "Ġoption": 8461,
      "çĹķ": 8462,
      "But": 8463,
      "æ²³åĮĹ": 8464,
      ",è¿Ļç§į": 8465,
      "æĽ´å¥½åľ°": 8466,
      "Ġfailure": 8467,
      "æľĪä»½": 8468,
      "å©ļå§»": 8469,
      "ç½Ĳ": 8470,
      ")(": 8471,
      "ç¡Ŀ": 8472,
      "pan": 8473,
      "ä»£çĲĨ": 8474,
      "-T": 8475,
      "å®ŀåľ¨": 8476,
      "èĨı": 8477,
      "-A": 8478,
      "éĶ¡": 8479,
      "Ġgradu": 8480,
      "Ġversion": 8481,
      "åı¹": 8482,
      "èħ»": 8483,
      "é«ĺçŃī": 8484,
      "ä¸ĵåĪ©": 8485,
      "ibrary": 8486,
      "uries": 8487,
      "åį±å®³": 8488,
      "RNA": 8489,
      "åĽŀæĶ¶": 8490,
      "æŁı": 8491,
      "cel": 8492,
      "åķ¥": 8493,
      "Ġtou": 8494,
      "Ġdiscussion": 8495,
      "çĽ´å¾Ħ": 8496,
      "ĠBecause": 8497,
      "Ġframework": 8498,
      "æŀ¯": 8499,
      "IM": 8500,
      "æ¶Īå¤±": 8501,
      "åĮĸå·¥": 8502,
      "ä¸Ģä½ĵ": 8503,
      "èĢģå¸ĪçļĦ": 8504,
      "æĹ¶å°ļ": 8505,
      "åĩºçİ°äºĨ": 8506,
      "ä¿Ħç½Ĺæĸ¯": 8507,
      "æĽ´ä¸º": 8508,
      "Ġpromot": 8509,
      "æľīå¾Īå¤ļ": 8510,
      "ï¼Įå¯¹äºİ": 8511,
      "ĠAlso": 8512,
      "change": 8513,
      "åģľæŃ¢": 8514,
      "Ġcompanies": 8515,
      "SD": 8516,
      "Ġbuilt": 8517,
      "è´¤": 8518,
      "Ġinjury": 8519,
      "Ġcenter": 8520,
      "åĬŁæķĪ": 8521,
      "éĢıæĺİ": 8522,
      "æĹłéĻĲ": 8523,
      "used": 8524,
      "ohn": 8525,
      "By": 8526,
      "Ġoperation": 8527,
      "uild": 8528,
      "ees": 8529,
      "IF": 8530,
      "åįľ": 8531,
      "iverse": 8532,
      "æĶ¾å¤§": 8533,
      "äº§åĵģçļĦ": 8534,
      "Ġweeks": 8535,
      "Ġdiss": 8536,
      "å¾Īå°ĳ": 8537,
      "åľºæīĢ": 8538,
      "Ġtemperatures": 8539,
      "è¯´è¯Ŀ": 8540,
      "æ¸ĹéĢı": 8541,
      ".org": 8542,
      "è§£è¯»": 8543,
      "Ġdiabetes": 8544,
      "rupt": 8545,
      "èĬĿ": 8546,
      "ä»ħä»ħ": 8547,
      "indows": 8548,
      "çŃīå¥ĸ": 8549,
      "çłĶç©¶æīĢ": 8550,
      "http": 8551,
      "éĿ¢ä¸Ĭ": 8552,
      "åĻª": 8553,
      "crib": 8554,
      "ï¼Įä¾ĭå¦Ĥ": 8555,
      ")ãĢĤĊĊ": 8556,
      "rate": 8557,
      "que": 8558,
      "è¾ĥé«ĺ": 8559,
      "Ġorganic": 8560,
      "çļĦåŁºç¡Ģä¸Ĭ": 8561,
      "Ġsurgery": 8562,
      "Ġtrend": 8563,
      "çļĦéĤ£": 8564,
      "ä»Ķç»Ĩ": 8565,
      "çļĦåħ³éĶ®": 8566,
      "Ġeating": 8567,
      "ĠRem": 8568,
      "ä¹Łèĥ½": 8569,
      "ãĢģæĸ°": 8570,
      "ĠEv": 8571,
      "ï¼Įå¤ļ": 8572,
      "Ġpowerful": 8573,
      "çİ¯ä¿Ŀ": 8574,
      ",æīį": 8575,
      "Ġregions": 8576,
      "Ġtox": 8577,
      "éĴ¾": 8578,
      "æ¹ĸåįĹ": 8579,
      "mg": 8580,
      "Ġcopy": 8581,
      "èµ«": 8582,
      "Ġbill": 8583,
      "æĪ¿å±ĭ": 8584,
      "ç»Ļå¤§å®¶": 8585,
      "Ġrisks": 8586,
      "æĶ»åĩ»": 8587,
      "ructure": 8588,
      "Ġcapital": 8589,
      "(ä¸Ģ": 8590,
      "ĠCommun": 8591,
      "cules": 8592,
      "ister": 8593,
      "ï¼Įè¿Ļæł·": 8594,
      "Ġce": 8595,
      "EE": 8596,
      "heck": 8597,
      "Ġkill": 8598,
      "èĮĥåĽ´åĨħ": 8599,
      "Ġmiss": 8600,
      "ĠMon": 8601,
      "ĠHist": 8602,
      "éĢĲæŃ¥": 8603,
      "Ġviol": 8604,
      "oming": 8605,
      "è·¯å¾Ħ": 8606,
      "Ġspeech": 8607,
      "ä¸ľæĸ¹": 8608,
      "Ġgrade": 8609,
      "ï¼ĮåĽł": 8610,
      "rum": 8611,
      "è®°èĢħ": 8612,
      "åħ¬åı¸çļĦ": 8613,
      ",æĸ°": 8614,
      "TP": 8615,
      "æŃ¦æ±ī": 8616,
      "Ġrelatively": 8617,
      "æķħéļľ": 8618,
      "isation": 8619,
      "æ¯ģ": 8620,
      "Ġglass": 8621,
      "Ġadvanced": 8622,
      "##": 8623,
      "èµĶ": 8624,
      "å¼Ģå¿ĥ": 8625,
      "æĪ¿åŃĲ": 8626,
      "âĳ£": 8627,
      "è¿Ľå±ķ": 8628,
      "é¡ºåĪ©": 8629,
      "ĠBi": 8630,
      "oma": 8631,
      "Ġsymbol": 8632,
      "åħ½": 8633,
      "çĥ·": 8634,
      "èĪŀè¹Ī": 8635,
      "Ġchanging": 8636,
      "Ġteach": 8637,
      "å¼¥": 8638,
      "æĻ¯è§Ĥ": 8639,
      "æĲħ": 8640,
      "Ġenjoy": 8641,
      "%ï¼Į": 8642,
      "æĬ½è±¡": 8643,
      "Ġball": 8644,
      "éĽĨæĪĲ": 8645,
      "OP": 8646,
      "Ġshowed": 8647,
      "ĠPhys": 8648,
      "å·¨å¤§çļĦ": 8649,
      "å®¡ç¾İ": 8650,
      "åĽ½çļĦ": 8651,
      "ĠChrist": 8652,
      "Ġperfect": 8653,
      "Ġscen": 8654,
      "åĪ°è¾¾": 8655,
      "éĩıåŃĲ": 8656,
      "Ġinflamm": 8657,
      "è¾½": 8658,
      "ĠSub": 8659,
      "ï¼ĮæĪĸèĢħ": 8660,
      "On": 8661,
      "Ġpair": 8662,
      "çļĦæķħäºĭ": 8663,
      "ä¹īåĬ¡": 8664,
      "åľ¨çľĭ": 8665,
      "elines": 8666,
      "-M": 8667,
      "è´¸æĺĵ": 8668,
      "å¤º": 8669,
      "ä»¥ä¸ĬçļĦ": 8670,
      "ä¹Łè¦ģ": 8671,
      "Ġstar": 8672,
      "éĢ¸": 8673,
      "æĴ°": 8674,
      "æĮ¡": 8675,
      "çĹĽèĭ¦": 8676,
      "ä¹Łè®¸": 8677,
      "ï¼ĮåĲİ": 8678,
      "å¤ĩèĢĥ": 8679,
      "Ġstorage": 8680,
      "åĿĬ": 8681,
      "Ġwave": 8682,
      "Ġmiddle": 8683,
      "\",\"": 8684,
      "ï¼ĮæıĲé«ĺ": 8685,
      "èĢĥæł¸": 8686,
      "Why": 8687,
      "Ġincorpor": 8688,
      "é¢Ħè®¡": 8689,
      "Ġstream": 8690,
      "æĺ¨": 8691,
      "xiety": 8692,
      "èĤ¡ç¥¨": 8693,
      "Ġves": 8694,
      "å®ļæľŁ": 8695,
      "pite": 8696,
      "æİĴæĶ¾": 8697,
      "ĠEuropean": 8698,
      "èĢķ": 8699,
      "åħħçĶµ": 8700,
      "åĳĢ": 8701,
      "Ġfiles": 8702,
      "æİ¥æĶ¶": 8703,
      "ãĢĤæ¯Ķå¦Ĥ": 8704,
      "æª": 8705,
      "alysis": 8706,
      "Ġfarm": 8707,
      "ãĢĳĊĊ": 8708,
      "è®¤è¯ģ": 8709,
      "Ġtopics": 8710,
      "ï¼Įä¸ŃåĽ½": 8711,
      "see": 8712,
      "ographic": 8713,
      "Ġagree": 8714,
      "cking": 8715,
      "å±ħä½ı": 8716,
      "Ġstyle": 8717,
      "ç¤¾ä¼ļä¸»ä¹ī": 8718,
      "ä¸ĵä¸ļçļĦ": 8719,
      "apan": 8720,
      "ĠÂł": 8721,
      "ocal": 8722,
      "äºĴçĽ¸": 8723,
      "ä¸»æĮģ": 8724,
      "Ġopportunity": 8725,
      "èģª": 8726,
      "å°ıäºİ": 8727,
      "Ġactual": 8728,
      ",åıªè¦ģ": 8729,
      "çļĦå½¢å¼ı": 8730,
      "éĻķ": 8731,
      "éĥ¨çļĦ": 8732,
      "å¥Ī": 8733,
      "vest": 8734,
      "Ġmaximum": 8735,
      "å¿ĥçģµ": 8736,
      "æīĩ": 8737,
      "ĠSur": 8738,
      "roph": 8739,
      "éĩįåºĨ": 8740,
      "çŃīäºİ": 8741,
      ",åºĶ": 8742,
      "å¿ħçĦ¶": 8743,
      "åħ±åĴĮ": 8744,
      "-D": 8745,
      "Ġhappens": 8746,
      "'ll": 8747,
      "æĪĲäº¤": 8748,
      "IL": 8749,
      "ä¸Ĭä¸Ģ": 8750,
      "tes": 8751,
      "ĠServ": 8752,
      "å¾Īå¤§çļĦ": 8753,
      "Ð¾": 8754,
      "åĽŀå®¶": 8755,
      "ç¾İé£Ł": 8756,
      "standing": 8757,
      "èĶ¬èıľ": 8758,
      "ĠSer": 8759,
      "ä¹ĭå¤Ħ": 8760,
      "Ġprocedure": 8761,
      "Ġeasier": 8762,
      "åĲĦä½į": 8763,
      "è¯´æĺ¯": 8764,
      "æł·æľ¬": 8765,
      "ĠPar": 8766,
      "æĺ¾å¾Ĺ": 8767,
      "å¯¼å¸Ī": 8768,
      "çłĸ": 8769,
      "ï¼Įä¸ĢèĪ¬": 8770,
      "lies": 8771,
      "Øª": 8772,
      "éĤĢè¯·": 8773,
      "å§ĳ": 8774,
      "ä¸įåľ¨": 8775,
      "Ġthick": 8776,
      "æħ¢æĢ§": 8777,
      "rows": 8778,
      "Ġrise": 8779,
      "OL": 8780,
      "Ġinteresting": 8781,
      "ãĢĭï¼Ī": 8782,
      "è¿Ī": 8783,
      "ä¸įå¤ļ": 8784,
      "Ġintellig": 8785,
      "ï¸": 8786,
      "aled": 8787,
      "ken": 8788,
      "asc": 8789,
      "è¿Ļæ¬¡": 8790,
      "éļıæĹ¶": 8791,
      "çĪ¬": 8792,
      "æĸ¹ç¨ĭ": 8793,
      "Ġremains": 8794,
      "Ġvalu": 8795,
      "èĥļ": 8796,
      "æĿ¥æºĲäºİ": 8797,
      "åħ¸åŀĭ": 8798,
      "åĭĥ": 8799,
      "Ġrain": 8800,
      "Ġcalc": 8801,
      "è¢«ç§°ä¸º": 8802,
      "ky": 8803,
      "åĽłåŃĲ": 8804,
      "ĠST": 8805,
      "ĠSouth": 8806,
      "æĢ¨": 8807,
      "æĢ»ä½ĵ": 8808,
      "itative": 8809,
      "åıĶ": 8810,
      "lier": 8811,
      "ä¼ĺè´¨": 8812,
      "Ġmessage": 8813,
      ");Ċ": 8814,
      "èįĴ": 8815,
      "Ġgoes": 8816,
      ",éĥ½æĺ¯": 8817,
      "çĹ°": 8818,
      "ĠMay": 8819,
      "èĬ¬": 8820,
      "åıĳåĩº": 8821,
      "ros": 8822,
      "åĴĮåħ¶ä»ĸ": 8823,
      "é»Ħèī²": 8824,
      "çļĦåħī": 8825,
      "Ġpicture": 8826,
      "Ġcurriculum": 8827,
      "çģ¸": 8828,
      "eria": 8829,
      "Ġanything": 8830,
      "%Ċ": 8831,
      "é«ĵ": 8832,
      "å·¥ä½ľäººåĳĺ": 8833,
      ",ä¸»è¦ģ": 8834,
      "åŀ«": 8835,
      "Ġatmosphere": 8836,
      "ĠAustral": 8837,
      "å±¥": 8838,
      "Ġtreated": 8839,
      "ä¹Ķ": 8840,
      "Ġexpression": 8841,
      "At": 8842,
      "Ġmal": 8843,
      "ç§ĳçĽ®": 8844,
      "Ġmanage": 8845,
      "çħİ": 8846,
      "Ġmoment": 8847,
      "Ġexternal": 8848,
      "æ¶ĪèĢĹ": 8849,
      "Ġhistorical": 8850,
      "Ġblue": 8851,
      "çķĻè¨Ģ": 8852,
      "Ġconnection": 8853,
      "æ¸´": 8854,
      "Ġstatus": 8855,
      "Ġplease": 8856,
      "ĠOver": 8857,
      "Ġcop": 8858,
      "é¢ĨåŁŁçļĦ": 8859,
      "éģĵçĲĨ": 8860,
      "ç®¡éģĵ": 8861,
      "Ġestablished": 8862,
      "Ġpregn": 8863,
      "oses": 8864,
      "ä¼Ĺå¤ļ": 8865,
      "æĬķç¨¿": 8866,
      "Ġcontract": 8867,
      "Ġstarted": 8868,
      "Ġnames": 8869,
      "Ġalthough": 8870,
      "å¸¸è§Ħ": 8871,
      "å¨ľ": 8872,
      "mitted": 8873,
      "-up": 8874,
      "Ġrepl": 8875,
      "çĽ¸åıį": 8876,
      "Ġseems": 8877,
      "ãĢĤåħ¶ä¸Ń": 8878,
      ".\"Ċ": 8879,
      "ĠInstitute": 8880,
      "Ġvoltage": 8881,
      "çļĦåİĨåı²": 8882,
      "Ġefforts": 8883,
      "Ġcontrast": 8884,
      "hold": 8885,
      "Ġrunning": 8886,
      "Ġing": 8887,
      "æł½": 8888,
      "æ´Ĵ": 8889,
      "ifying": 8890,
      "èĵĿèī²": 8891,
      "Ġcausing": 8892,
      "BC": 8893,
      "è¾ħå¯¼": 8894,
      "Ġprice": 8895,
      "rete": 8896,
      "çĽ²": 8897,
      "æ¸ħæ´Ĺ": 8898,
      "çŃĴ": 8899,
      "åĦĴ": 8900,
      "Ġdivid": 8901,
      "Ġlate": 8902,
      "è¡į": 8903,
      "æľĢä½İ": 8904,
      "ç¿¼": 8905,
      "ï¼Įåħ·æľī": 8906,
      "ä¸»å¸Ń": 8907,
      "-L": 8908,
      "bal": 8909,
      "Ġsyn": 8910,
      "äºĮæ°§åĮĸ": 8911,
      "Ġemphas": 8912,
      "åħĶ": 8913,
      "å®¹åĻ¨": 8914,
      "åŁºåľ°": 8915,
      "Ġleads": 8916,
      "ĠClass": 8917,
      "å¸¦æľī": 8918,
      "ä»²": 8919,
      "ä¸ĭä¸Ģ": 8920,
      "èµĦè®¯": 8921,
      "å½¼æŃ¤": 8922,
      "éĢ¼": 8923,
      "èī°": 8924,
      "çļĦæľĭåıĭ": 8925,
      "Ġmetab": 8926,
      "Ġimproved": 8927,
      "åĽŀå½Ĵ": 8928,
      "çĦĬæİ¥": 8929,
      ",åģļ": 8930,
      "åĪ©æ¶¦": 8931,
      "æ¯ıä¸ªäºº": 8932,
      "æ¶Īæ¯Ĵ": 8933,
      "Ġswe": 8934,
      "\\*\\*": 8935,
      "Ġreducing": 8936,
      "ĠNow": 8937,
      "å½ĵä¸Ń": 8938,
      "Ġcurrently": 8939,
      "èĲĿ": 8940,
      "åĨĻçļĦ": 8941,
      "åĩłä½ķ": 8942,
      "è¾ĥä½İ": 8943,
      "åĽŀé¡¾": 8944,
      "Ġbone": 8945,
      "Ġillustr": 8946,
      "éĽĨä½ĵ": 8947,
      "çļĦè¦ģæ±Ĥ": 8948,
      "Ġlat": 8949,
      "Ġselected": 8950,
      "Ġagg": 8951,
      "å¾ĹåĪ°äºĨ": 8952,
      "Ġreprodu": 8953,
      "æĸĩåĮĸçļĦ": 8954,
      "å¼ķåħ¥": 8955,
      "ç¾¤ä½ĵ": 8956,
      "-B": 8957,
      "rench": 8958,
      "ï¼Įå®ĥä»¬": 8959,
      "æĪĲéĥ½": 8960,
      "Ġcit": 8961,
      ",åıªæľī": 8962,
      "æĿ¥åĪ°": 8963,
      "Ġdepending": 8964,
      "net": 8965,
      "itionally": 8966,
      "é«ĺäºİ": 8967,
      "anks": 8968,
      "Ġproperly": 8969,
      "haps": 8970,
      "çŁ³æ²¹": 8971,
      "ä¹¡æĿĳ": 8972,
      "é¸¿": 8973,
      "åºıåĪĹ": 8974,
      "åŁĭ": 8975,
      "Ġinstruction": 8976,
      "OC": 8977,
      "è½¬åıĺ": 8978,
      "è¯ķé¢ĺ": 8979,
      "Ġmagnetic": 8980,
      "ä¸ĸçķĮçļĦ": 8981,
      "åºĶçĶ¨äºİ": 8982,
      "åľ°äº§": 8983,
      "çļĦäººçĶŁ": 8984,
      "åĭ¾": 8985,
      "èĪŁ": 8986,
      "Ġeverything": 8987,
      "èĻļæĭŁ": 8988,
      "æīĭæ³ķ": 8989,
      "Ġparameters": 8990,
      "Ġmeasurement": 8991,
      "âľ": 8992,
      "èķ´": 8993,
      "Ġattrib": 8994,
      "è¿Ľç¨ĭ": 8995,
      "çº¿æĢ§": 8996,
      "anguages": 8997,
      "Ġorganizations": 8998,
      "å¤©æ´¥": 8999,
      "çĻ»è®°": 9000,
      "Ġago": 9001,
      "ordin": 9002,
      "Ġexpand": 9003,
      "Ġ---": 9004,
      "Ġlegal": 9005,
      "ãĢĤæľ¬": 9006,
      "ç¢§": 9007,
      "å¤ķ": 9008,
      "Ġmotor": 9009,
      "ç¼ĸçłģ": 9010,
      "Ġaccurate": 9011,
      "hetic": 9012,
      "æĭĵå±ķ": 9013,
      "äºı": 9014,
      "Ġgenerate": 9015,
      "ãĢĤå¥¹": 9016,
      "å·¡": 9017,
      "Ġnetworks": 9018,
      "éľŀ": 9019,
      "å¯ĨåĪĩ": 9020,
      "celer": 9021,
      "å¹¿å¤§": 9022,
      "è¿ĺåľ¨": 9023,
      "ada": 9024,
      "åĨ²çªģ": 9025,
      "èĵĦ": 9026,
      "board": 9027,
      "åĿĳ": 9028,
      "ï¼Įéĥ½": 9029,
      "Ġpractical": 9030,
      "åŃ¦æľŁ": 9031,
      "Ġsentence": 9032,
      "æľīåĬ©äºİ": 9033,
      "ç³»æķ°": 9034,
      "ĠSince": 9035,
      "Ġchronic": 9036,
      "çºªå¿µ": 9037,
      "åĬ¨çĶ»": 9038,
      "ä»¶çļĦ": 9039,
      "èĨĿ": 9040,
      "èĥģ": 9041,
      "ager": 9042,
      "è´§å¸ģ": 9043,
      "åĩºåİ»": 9044,
      "Ġbatter": 9045,
      "Ġcontribute": 9046,
      "/m": 9047,
      "Ġcame": 9048,
      "All": 9049,
      "ä¸ĢçĶŁ": 9050,
      "è¯·æ±Ĥ": 9051,
      "éľ¸": 9052,
      "èĴĤ": 9053,
      "è§Ĩä¸º": 9054,
      "Ġoperations": 9055,
      "ä¸įéľĢè¦ģ": 9056,
      "åŃĺåľ¨çļĦ": 9057,
      "ony": 9058,
      "ĠThus": 9059,
      "Ġprefer": 9060,
      "æ¼Ĩ": 9061,
      "åĤħ": 9062,
      "åĨħåľ¨": 9063,
      "No": 9064,
      "_M": 9065,
      "ĠCenter": 9066,
      "çĶ·å¥³": 9067,
      "è´¢å¯Į": 9068,
      "Ġmedicine": 9069,
      "uses": 9070,
      "ä¸ĬåįĪ": 9071,
      "æĿĲæĸĻçļĦ": 9072,
      "Ġchallenge": 9073,
      "èĳĹä½ľ": 9074,
      "___": 9075,
      "Ġbottom": 9076,
      "bre": 9077,
      "Ġfigure": 9078,
      "Ġseparate": 9079,
      "Ġanalyz": 9080,
      "ä¸¸": 9081,
      "Ġproteins": 9082,
      "åħ¬å®ī": 9083,
      "å¤ĦçļĦ": 9084,
      "æľīåĵªäºĽ": 9085,
      "Ġhyper": 9086,
      "åĲįçļĦ": 9087,
      "Ġhar": 9088,
      "åĪĻæĺ¯": 9089,
      "Ġforward": 9090,
      "ä¸ĺ": 9091,
      "ops": 9092,
      "ĠGod": 9093,
      "~~": 9094,
      "çº¿è·¯": 9095,
      "ĠDesign": 9096,
      ",åİ»": 9097,
      "å¤©åľ°": 9098,
      "Ab": 9099,
      "ĠMake": 9100,
      "Ġplaces": 9101,
      "idth": 9102,
      "ING": 9103,
      "åĮ¹éħį": 9104,
      "\".": 9105,
      "MB": 9106,
      "Ġassist": 9107,
      "å¨±ä¹Ĳ": 9108,
      "è¶ħçº§": 9109,
      "ĠChinese": 9110,
      "å¤§çº¦": 9111,
      "ĠPat": 9112,
      "çŀ¬éĹ´": 9113,
      "Ġalcohol": 9114,
      "åįĩé«ĺ": 9115,
      "known": 9116,
      "Ġphenomen": 9117,
      "å¸ķ": 9118,
      "æĦģ": 9119,
      "èĮİ": 9120,
      "ä¼°è®¡": 9121,
      "æ²»çĲĨ": 9122,
      "Ġcollection": 9123,
      "è¯Ńæ³ķ": 9124,
      "Ġtheore": 9125,
      "èĻ¾": 9126,
      "Ġinterpret": 9127,
      "å¸ĸ": 9128,
      "faces": 9129,
      "åį¢": 9130,
      "ĠEngine": 9131,
      "æ¹ĸåĮĹ": 9132,
      "ste": 9133,
      "åľ°ä¸ĭ": 9134,
      "Here": 9135,
      "Ġhorm": 9136,
      "Ġnovel": 9137,
      "åľ¨è¿Ļä¸ª": 9138,
      "ĠPlan": 9139,
      "Ġconstruction": 9140,
      "Ġengineering": 9141,
      "Ġparticipants": 9142,
      "ĠManagement": 9143,
      "åıĺå½¢": 9144,
      "åİĭç¼©": 9145,
      "co": 9146,
      "æ°Ł": 9147,
      "èĹ»": 9148,
      "å¿ĥæĥħ": 9149,
      "åºĶèģĺ": 9150,
      "é©»": 9151,
      "ç¯ĩæĸĩç«ł": 9152,
      "èĤłéģĵ": 9153,
      "è£ħä¿®": 9154,
      "æŁĵèī²": 9155,
      "Ġdeal": 9156,
      "Ġbed": 9157,
      "Ġmeasured": 9158,
      "oxide": 9159,
      "æ¶ĪéĻ¤": 9160,
      "Ġalternative": 9161,
      "ä¹Łå°±": 9162,
      "æİ¥ä¸ĭæĿ¥": 9163,
      "çŃīæĸ¹éĿ¢": 9164,
      "å·¥ç¨ĭå¸Ī": 9165,
      "umin": 9166,
      "éħ·": 9167,
      "ç²¾åº¦": 9168,
      "æ°ĳéĹ´": 9169,
      "æĽ¿ä»£": 9170,
      "Ġpiece": 9171,
      "CL": 9172,
      "Ġmonitoring": 9173,
      "çĩĥæĸĻ": 9174,
      "Ġdisorder": 9175,
      "Ġmotiv": 9176,
      "alle": 9177,
      "æµĩ": 9178,
      "Ġpow": 9179,
      "æľªæĿ¥çļĦ": 9180,
      "èıĬ": 9181,
      "Ġspir": 9182,
      "è¿ĺèĥ½": 9183,
      "æĦŁçŁ¥": 9184,
      "æĭĴç»Ŀ": 9185,
      "èµ°åĲĳ": 9186,
      "æīŃ": 9187,
      "Ġplaced": 9188,
      "å¤§ä¼ļ": 9189,
      "æľºçļĦ": 9190,
      "èĲĮ": 9191,
      "ios": 9192,
      "Ġmig": 9193,
      "ĠOnce": 9194,
      "åİ¦": 9195,
      "Ġmap": 9196,
      "Ġeveryone": 9197,
      "bor": 9198,
      "force": 9199,
      "ç¡«éħ¸": 9200,
      "çĥŃçĪ±": 9201,
      "åĲįåįķ": 9202,
      "Ġdental": 9203,
      "Im": 9204,
      "ially": 9205,
      "ç³ķ": 9206,
      "åĻ¨å®ĺ": 9207,
      "æĶ¹éĢł": 9208,
      "å²ģçļĦ": 9209,
      "æĪĴ": 9210,
      ",ä¸ĢèĪ¬": 9211,
      "æİ¥ç§į": 9212,
      "å¯¼ä½ĵ": 9213,
      "åĳ½ä»¤": 9214,
      "Ġcircuit": 9215,
      "Ġcorrespond": 9216,
      "åĲįä¸º": 9217,
      "è¡¬": 9218,
      "Ð°": 9219,
      "è¥¿å®ī": 9220,
      "ä¸Ģå®¶": 9221,
      "(äºĮ": 9222,
      "éĽķå¡ĳ": 9223,
      "æĺ¯æĪĳ": 9224,
      "å½»åºķ": 9225,
      "çģµéŃĤ": 9226,
      "çĦ¦èĻĳ": 9227,
      "``": 9228,
      "åľĨå½¢": 9229,
      "Ad": 9230,
      "osystem": 9231,
      "Ġthous": 9232,
      "Ġdrive": 9233,
      "Ġmotion": 9234,
      "Ġupper": 9235,
      "æ½ľåľ¨": 9236,
      "æ°´æŀľ": 9237,
      "ius": 9238,
      "åľ°éĿ¢": 9239,
      "Ġcommer": 9240,
      "eline": 9241,
      "çī©ç§į": 9242,
      "Ġgeneration": 9243,
      "æ¶Īéĺ²": 9244,
      "Ġtrying": 9245,
      "Ġinsect": 9246,
      "ĠAnt": 9247,
      "ancing": 9248,
      "å½¢æĪĲçļĦ": 9249,
      "ä¸§": 9250,
      "æĸĩèīº": 9251,
      "çĻĮçĹĩ": 9252,
      "Ġstarting": 9253,
      "my": 9254,
      "ç»ĻæĪĳ": 9255,
      "Ġfriends": 9256,
      "åı°æ¹¾": 9257,
      "Ġwhose": 9258,
      "å®¶æĹı": 9259,
      "è¡ĮæĺŁ": 9260,
      "åīįåĲİ": 9261,
      "è¯Ĺè¯į": 9262,
      "æĺ¯ä»¥": 9263,
      "å¯¿åĳ½": 9264,
      "Ġrecommended": 9265,
      "èĭ±éĽĦ": 9266,
      "rors": 9267,
      "Ġhighlight": 9268,
      "Ġbirds": 9269,
      "å®ĹæķĻ": 9270,
      "é¢Ĩåıĸ": 9271,
      "ĠFl": 9272,
      "Ġvessel": 9273,
      "éķľå¤´": 9274,
      ",èĻ½çĦ¶": 9275,
      "åĵªä¸ª": 9276,
      "åĲ«ä¹ī": 9277,
      "çļĦæĦŁè§ī": 9278,
      "Ûĩ": 9279,
      "ana": 9280,
      "ĠMin": 9281,
      "ç«Ļåľ¨": 9282,
      "Ġleave": 9283,
      "Ġcompl": 9284,
      "ä¸Ī": 9285,
      "list": 9286,
      "...Ċ": 9287,
      "ãĢģå¤ļ": 9288,
      "reate": 9289,
      "ĠWeb": 9290,
      "Ġimpl": 9291,
      "ä¼½": 9292,
      "Ġagricult": 9293,
      "çľĭåĩº": 9294,
      "Ġphilos": 9295,
      "ç¨³å®ļæĢ§": 9296,
      "è¾¹ç¼ĺ": 9297,
      "ãĢģæĹł": 9298,
      "Ġstore": 9299,
      "PR": 9300,
      "Ġobtained": 9301,
      "å®¹éĩı": 9302,
      "é¸Ń": 9303,
      "Ġanti": 9304,
      "rought": 9305,
      "Step": 9306,
      "åĲĬ": 9307,
      "çľī": 9308,
      "çļĦèīºæľ¯": 9309,
      "éĢīçĶ¨": 9310,
      "-v": 9311,
      "Ġfundamental": 9312,
      "Ġprop": 9313,
      "æľŁåĪĬ": 9314,
      "aught": 9315,
      "Ġcognitive": 9316,
      "éĵħ": 9317,
      "âĢĿ,": 9318,
      "ç¼ºéĻ·": 9319,
      "å£¶": 9320,
      "ials": 9321,
      "è®°ä½ı": 9322,
      "æłĳèĦĤ": 9323,
      "Us": 9324,
      "Ġcand": 9325,
      "Ġallowing": 9326,
      "åĽŀå¿Ĩ": 9327,
      ",æľ¬": 9328,
      "Ġmolecules": 9329,
      "å¹¶éĿŀ": 9330,
      "Ġcam": 9331,
      "ĠInformation": 9332,
      "æł·åŃĲ": 9333,
      "åħ³èģĶ": 9334,
      "èĩ£": 9335,
      "æĸ°åŀĭ": 9336,
      "Ġsch": 9337,
      "å¼ķèµ·çļĦ": 9338,
      "Ġtim": 9339,
      "olved": 9340,
      "å¼§": 9341,
      "å¼ķçĶ¨": 9342,
      "Ġconsumption": 9343,
      "å¤įæĿĤçļĦ": 9344,
      "åı«åģļ": 9345,
      "è¿ĺä¼ļ": 9346,
      "éĩįéĩı": 9347,
      "(s": 9348,
      "dent": 9349,
      "å»ī": 9350,
      "ãĢģä¸ŃåĽ½": 9351,
      "ãĢĤè¦ģ": 9352,
      "Ġdefinition": 9353,
      "æĶ¾æĿ¾": 9354,
      "åį³å°Ĩ": 9355,
      ",æĥ³": 9356,
      "Ġpages": 9357,
      "æĪĸè®¸": 9358,
      "å¥½å¥½": 9359,
      "Ġmention": 9360,
      "å®ŀä¹ł": 9361,
      "Ġindicate": 9362,
      "omic": 9363,
      "Ġmuscles": 9364,
      "Ġdetermined": 9365,
      "è£Ļ": 9366,
      "çľĭèµ·æĿ¥": 9367,
      "-y": 9368,
      "çļĦæķĪæŀľ": 9369,
      "åīĸ": 9370,
      "Some": 9371,
      "ĠWater": 9372,
      "æ»¡æĦı": 9373,
      "é»Ħéĩĳ": 9374,
      "Ġunits": 9375,
      "æĬĸ": 9376,
      "çļĦæķĻåŃ¦": 9377,
      "Ġgets": 9378,
      "æ°´åĪĨ": 9379,
      "æµ´": 9380,
      "DS": 9381,
      "è¿ĽèĢĮ": 9382,
      "Ġsituations": 9383,
      "Ġrule": 9384,
      "ï¿½": 9385,
      "è¿ĺåİŁ": 9386,
      "æĴĴ": 9387,
      "çļĦå¤ĸ": 9388,
      "æĿ¿åĿĹ": 9389,
      "è¿ĩäºĨ": 9390,
      "UR": 9391,
      "Ġfollowed": 9392,
      "èĬĤæĹ¥": 9393,
      "åŃĿ": 9394,
      "erate": 9395,
      "èµ·åĪ°": 9396,
      "éķĢ": 9397,
      "iance": 9398,
      "æİ¨åĩº": 9399,
      "çĶ·æĢ§": 9400,
      "è¿Ŀæ³ķ": 9401,
      "atin": 9402,
      "åħ»èĢģ": 9403,
      "Ġocean": 9404,
      "æŀļ": 9405,
      "æŁĲä¸ª": 9406,
      "Ġsoon": 9407,
      "åıįæĢĿ": 9408,
      "æ¸łéģĵ": 9409,
      "ä»¬çļĦ": 9410,
      "ä¸Ģå¼ł": 9411,
      "åĪ«çļĦ": 9412,
      "åĳ¨è¾¹": 9413,
      "Ġletters": 9414,
      "Ġsuggests": 9415,
      "Ġcompr": 9416,
      "Ġmulti": 9417,
      "umber": 9418,
      "ĠDi": 9419,
      "ï¼Įè¿Ļæĺ¯": 9420,
      "och": 9421,
      "çĶ¨éĢĶ": 9422,
      "uge": 9423,
      "Ġsequence": 9424,
      "Ġrich": 9425,
      "flow": 9426,
      "æľįè£ħ": 9427,
      "æĦī": 9428,
      "Ġcommand": 9429,
      "ä¸Ģä¸Ģ": 9430,
      "PE": 9431,
      "æĪĲå¹´": 9432,
      "å¦Ĥä»Ĭ": 9433,
      "semb": 9434,
      "æ²ĥ": 9435,
      "ares": 9436,
      "ç³ĸå°¿": 9437,
      "åłµ": 9438,
      "é»ı": 9439,
      "çĮĽ": 9440,
      "iny": 9441,
      "åŃ¦çĶŁåľ¨": 9442,
      "cast": 9443,
      "Ġfeedback": 9444,
      "ixt": 9445,
      "Ġconflic": 9446,
      "Ġalgorithm": 9447,
      "Ġratio": 9448,
      "Ġbeg": 9449,
      "ta": 9450,
      "å®ł": 9451,
      "DF": 9452,
      "Ġsess": 9453,
      "Ġhealthcare": 9454,
      "åļ": 9455,
      "å±ĤçļĦ": 9456,
      "iring": 9457,
      "ĠRec": 9458,
      "æĲ¬": 9459,
      "Ġoperating": 9460,
      "æ±¡æ°´": 9461,
      "ç¯®": 9462,
      "iated": 9463,
      "Ġextremely": 9464,
      "_G": 9465,
      "ä¸Ģåľº": 9466,
      "ulating": 9467,
      "CM": 9468,
      "ĠInternational": 9469,
      "Ġsites": 9470,
      "æĩĤå¾Ĺ": 9471,
      "ä¸ĳ": 9472,
      "Ġhypot": 9473,
      "iment": 9474,
      "æ¯«ç±³": 9475,
      "åıĸæ¶Ī": 9476,
      "Ġhappen": 9477,
      "å¤¸": 9478,
      "Ġdetailed": 9479,
      "ä¸įä½ı": 9480,
      "åĳ½è¿Ĳ": 9481,
      "åĬĽåŃ¦": 9482,
      "ç³ĸå°¿çĹħ": 9483,
      "Ġtrack": 9484,
      "æ¶Į": 9485,
      "era": 9486,
      ",ä¸įä»ħ": 9487,
      "ĠPower": 9488,
      "Ġlocated": 9489,
      "åŃĹç¬¦": 9490,
      "çķĮéĿ¢": 9491,
      "Ġinvolve": 9492,
      "Ġjo": 9493,
      "ĠSupp": 9494,
      "åĨ²åĩ»": 9495,
      "æ¿Ģç´ł": 9496,
      "æ°ĶçļĦ": 9497,
      "hemical": 9498,
      "ä¸įåıĺ": 9499,
      "åį¦": 9500,
      "Ġemotional": 9501,
      "å°±åľ¨": 9502,
      "æĵħ": 9503,
      "Ġindependent": 9504,
      "æĶ¶åĪ°": 9505,
      "èĢ¶": 9506,
      "åºĶçĶ¨ç¨ĭåºı": 9507,
      "Ġcity": 9508,
      "ä¸įå¦Ĥ": 9509,
      "Ġselection": 9510,
      "åıįèĢĮ": 9511,
      "ä¸ľåĮĹ": 9512,
      "Ġemissions": 9513,
      "ï¼Įåıª": 9514,
      "å«©": 9515,
      "Ġarchitect": 9516,
      "åıĳçĹħ": 9517,
      "çİĦ": 9518,
      "urally": 9519,
      "ibly": 9520,
      "ĠJapan": 9521,
      "æĥ§": 9522,
      "æĭħä»»": 9523,
      "Ġfruit": 9524,
      "Ġreplace": 9525,
      "Ġprocedures": 9526,
      "can": 9527,
      "pat": 9528,
      "å©´åĦ¿": 9529,
      "ĠFurther": 9530,
      "æŀĦéĢł": 9531,
      "éĥİ": 9532,
      "æ¢³": 9533,
      "é¢Ħçº¦": 9534,
      "ç²īä¸Ŀ": 9535,
      "igen": 9536,
      "ache": 9537,
      "æ¼Ķåĳĺ": 9538,
      "ç»Ŀç¼ĺ": 9539,
      "çĶµè§£": 9540,
      "å°±æľī": 9541,
      "ä¼ª": 9542,
      "Ġrelease": 9543,
      "water": 9544,
      "isk": 9545,
      "åįķçĭ¬": 9546,
      "Ġcra": 9547,
      "èĻ¹": 9548,
      "æĽ´æĺ¯": 9549,
      "æĬ¹": 9550,
      "Ġexpert": 9551,
      "åĭ¿": 9552,
      "Ġclasses": 9553,
      "Ġlost": 9554,
      "åĵįåºĶ": 9555,
      "æĭ¨": 9556,
      "éŃħåĬĽ": 9557,
      "å®īå¾½": 9558,
      "çľĭæĿ¥": 9559,
      "ï¼Įå°ı": 9560,
      "ä¹¦ç±į": 9561,
      "---": 9562,
      "Ġmode": 9563,
      ",æıĲé«ĺ": 9564,
      "åĲĦåľ°": 9565,
      "ä¾¿æĺ¯": 9566,
      "Ġserver": 9567,
      ",åĪ°": 9568,
      "Ġindustrial": 9569,
      "Ġfert": 9570,
      "Ġillness": 9571,
      "çĶµåĬĽ": 9572,
      "åĪ¶å¤ĩ": 9573,
[...]
